/**
  ******************************************************************************
  * @file    network_data_params.c
  * @author  AST Embedded Analytics Research Platform
  * @date    2026-05-17T20:45:38+0800
  * @brief   AI Tool Automatic Code Generator for Embedded NN computing
  ******************************************************************************
  * Copyright (c) 2026 STMicroelectronics.
  * All rights reserved.
  *
  * This software is licensed under terms that can be found in the LICENSE file
  * in the root directory of this software component.
  * If no LICENSE file comes with this software, it is provided AS-IS.
  ******************************************************************************
  */

#include "network_data_params.h"


/**  Activations Section  ****************************************************/
ai_handle g_network_activations_table[1 + 2] = {
  AI_HANDLE_PTR(AI_MAGIC_MARKER),
  AI_HANDLE_PTR(NULL),
  AI_HANDLE_PTR(AI_MAGIC_MARKER),
};




/**  Weights Section  ********************************************************/
AI_ALIGNED(32)
const ai_u64 s_network_weights_array_u64[10771] = {
  0x3d10e3c03da3abf1U, 0x3c56a6bebe10e3c0U, 0xbdabb8983c412fabU, 0x3c8b85fcbd98f067U,
  0x3e037954bd837954U, 0xbc80ca72be1b9f4aU, 0xbde4112abde6c00cU, 0x3bd6a6bebddeb365U,
  0xbd964185be23abf1U, 0xbe0a2e8a3d265ad3U, 0xbdb67422baabb898U, 0x3b80ca723e27b244U,
  0x3e18f0673da3abf1U, 0xbe265ad3bbd6a6beU, 0xbd00ca723bd6a6beU, 0x3dae677abc6c1dd1U,
  0xbc56a6bebe18f067U, 0xbe123b31be20fd0eU, 0xbd8b85fcbddc0483U, 0x3d3bd1e63cd6a6beU,
  0x3e14ea14be27b244U, 0x3cec1dd13df17b96U, 0x3e123b31bc412fabU, 0x3d0b85fcbe1a47d9U,
  0x3d062837bd837954U, 0xbdc68d703ddc0483U, 0xbe20fd0e3e10e3c0U, 0x3ddeb365be2a6127U,
  0x3d66c00c3de96eefU, 0x3e037954bd8e34deU, 0x3d00ca723c80ca72U, 0x3d837954bdb3c53fU,
  0x3e062837bd468d70U, 0xbe23abf13cf6d95aU, 0xbdabb898bccbeb34U, 0x3d88d719bd5148f9U,
  0xbe2a6127bdd148f9U, 0xbbabb898bccbeb34U, 0xbca0fd0e3da65ad3U, 0xbc6c1dd1bdc68d70U,
  0x3df6d95abddc0483U, 0x3e0a2e8a3e1b9f4aU, 0x3df6d95a3e1cf6bbU, 0xbd8b85fcbe0cdd6dU,
  0xbc9641853d80ca72U, 0x3e265ad33d66c00cU, 0xbe0a2e8abdb3c53fU, 0xbddc04833c164185U,
  0xbd0628373cabb898U, 0xbcabb8983d2bb898U, 0xbd837954bd3bd1e6U, 0xbe123b313deeccb3U,
  0x3dbbd1e6be0f8c4fU, 0xbdd955a0be1392a3U, 0xbd6c1dd1bd616248U, 0xbde96eef3df17b96U,
  0xbcb67422be1a47d9U, 0x3c56a6be3e250362U, 0x3d20fd0e3d90e3c0U, 0xbe164185bde6c00cU,
  0x3de4112a3ccbeb34U, 0x3e037954be2a6127U, 0x3dd6a6be3d5c0483U, 0xbe14ea14bdc12fabU,
  0xbd7c371f3db3c53fU, 0x3c6c1dd1be0cdd6dU, 0xbdd148f93e27b244U, 0x3d88d719bdce9a17U,
  0xbe2909b6bdb92304U, 0x3e0b85fcbd76d95aU, 0xbddeb365bc56a6beU, 0x3db67422bd367422U,
  0xbc00ca72bccbeb34U, 0xbd5148f93e00ca72U, 0xbb2bb898bd9e4e2cU, 0xbce2a21b3d57d756U,
  0x3d7837a33b818134U, 0x3d57d7563d7d9d05U, 0xbe0da5513dbcdc6bU, 0xbd9f2ed03d5271f4U,
  0x3dd524a53da746e3U, 0xbb2cac45bc8c4bf8U, 0x3b8181343c4241ceU, 0xbd4241cebe0efea9U,
  0xbdaf5ef6bd4241ceU, 0x3b2cac453d2746e3U, 0x3e1c7c1f3cf837a3U, 0xbca1e1813e2b52ecU,
  0x3d2cac45bd0c4bf8U, 0x3dc241cebe018134U, 0x3e2b52ecbced6cdfU, 0xbc57d756be233ad9U,
  0xbcb777093c8c4bf8U, 0x3cd7d756bd62a21bU, 0x3d06e696bd5d3cb8U, 0xbe2b52ec3c2cac45U,
  0xbdf584f23d94640bU, 0xbaacac453d8433e5U, 0xbd8999473c818134U, 0xbe28a03b3d72d241U,
  0xbe0433e53ca1e181U, 0xbdcd0c92bd9f2ed0U, 0x3d3211a7be2b52ecU, 0x3e1c7c1f3d8433e5U,
  0x3d47a730bd018134U, 0x3dacac453de554ccU, 0xbd57d7563e21e181U, 0xbd57d7563b818134U,
  0x3d3211a7be28a03bU, 0x3bd7d7563d818134U, 0x3e130ab3bd9716bcU, 0xbd06e6963e19c96dU,
  0xbdd271f43c818134U, 0xbc8c4bf8be29f994U, 0xbd11b15abe0c4bf8U, 0xbe25ed8a3cc241ceU,
  0x3dbf8f1dbd1c7c1fU, 0x3e1b22c63dba29baU, 0xbcd7d756bd72d241U, 0x3da494323e0433e5U,
  0xbe0433e5bd94640bU, 0x3e0433e5be25ed8aU, 0x3b2cac453daf5ef6U, 0xbdc241cebdbf8f1dU,
  0x3bd7d756bddd3cb8U, 0x3c1716bc3e099947U, 0xbcc241cebde2a21bU, 0xbd68077d3d21e181U,
  0xbe25ed8a3e29f994U, 0xbe0efea93c57d756U, 0xbd62a21bbe02da8cU, 0xbd8c4bf8bc1716bcU,
  0x3c0181343d9f2ed0U, 0x3d018134be06e696U, 0xbc1716bc3d818134U, 0xbe0af2a0bc8c4bf8U,
  0x3d7d9d05bd2cac45U, 0x3dacac453dc4f47fU, 0xbd8c4bf83ce2a21bU, 0xbda9f9943c8c4bf8U,
  0x3c1716bcbd8433e5U, 0xbdba29ba3e0efea9U, 0x3da1e181bc6d6cdfU, 0x3c9716bcbdf2d241U,
  0xbdcfbf43bd86e696U, 0xbdfaea54bd7d9d05U, 0x3d377709bd1716bcU, 0x3d7d9d05bd21e181U,
  0xbe1dd577bd2746e3U, 0x3db211a7bd899947U, 0x3dcdb656bd284f5eU, 0x3dd71014be1bd7b6U,
  0x3e29de53bcc77a82U, 0x3d8f600dbe2cfc3dU, 0x3ca2138a3d5a2dfeU, 0xbd0f600d3de6a5a6U,
  0xbdab6d483dd71014U, 0xbe04775a3ce069d2U, 0x3dd3f22abdbb02daU, 0xbd5a2dfebe3fafb9U,
  0xbd02e865bd0f600dU, 0xbdc13eae3e04775aU, 0x3c2e8b32be079544U, 0x3dbb02dabdf95922U,
  0xbc159be2be0c4223U, 0x3e45eb8d3de387bcU, 0xbe3fafb93dca986cU, 0xbd8c4223be22138aU,
  0x3e1a48c13dfc770dU, 0x3d9ef5a03e18b9ccU, 0xbdf63b383c959be2U, 0x3d8f600dbdbb02daU,
  0xbd02e865be10ef02U, 0x3c959be23bc77a82U, 0x3e18b9ccbdff94f7U, 0xbe172ad73df95922U,
  0xbc477a823c2e8b32U, 0x3cd3f22abe02e865U, 0x3dda2dfebdd71014U, 0x3db1a91c3de069d2U,
  0x3d53f22a3e23a27fU, 0xbd9ef5a03d892439U, 0xbdbe20c43dfc770dU, 0xbdff94f73de9c390U,
  0x3e23a27fbd4db656U, 0xbe0159703e333811U, 0xbe3c91cf3d959be2U, 0x3de9c3903dae8b32U,
  0x3d7f94f73d159be2U, 0x3d66a5a63e015970U, 0xbac77a823e253174U, 0x3cece17abe092439U,
  0xbde069d2bd66a5a6U, 0x3e0f600dbd477a82U, 0xbd98b9ccbd22138aU, 0x3dc77a823dab6d48U,
  0x3ca2138a3c959be2U, 0x3d1bd7b6bd092439U, 0xbda84f5e3e015970U, 0xbb477a823e445c98U,
  0x3e06064fbd2e8b32U, 0x3d959be2bd34c706U, 0xbb959be2bdf63b38U, 0xbcece17abdab6d48U,
  0x3da84f5e3e1ef5a0U, 0xbcd3f22abd6069d2U, 0x3d8c4223be1d66abU, 0xbd86064f3d159be2U,
  0xbe0f600dbd2e8b32U, 0xbe0c42233d1bd7b6U, 0xbd0f600dbca2138aU, 0xbd02e865bd8c4223U,
  0xbdbe20c43e31a91cU, 0xbcece17a3d2e8b32U, 0xbcd3f22abdc13eaeU, 0x3d731d4e3dc45c98U,
  0x3dc77a823b477a82U, 0xbdf31d4ebd927df7U, 0xbca2138a3e18b9ccU, 0xbe22138abd5a2dfeU,
  0x3df31d4ebdefff64U, 0xbdb4c7063e092439U, 0x3d22138a3de387bcU, 0x3cc77a823df31d4eU,
  0xbd53f22abd8f600dU, 0x3d6dbcc8bd290ec7U, 0xbd04138bbc13eceeU, 0xbd1e7ddb3d687452U,
  0xbd5de365bdedbcc8U, 0xbd993564bdd89aefU, 0x3d23c6513d969129U, 0xbd632bdb3d290ec7U,
  0x3dbb8c653e17e347U, 0xbde87452be266a8cU, 0xbe212216bc93eceeU, 0xbca90ec7bd687452U,
  0x3e0c003dbdf84db4U, 0x3e169129be25186eU, 0xbdf061033d23c651U, 0x3e129ad13aa90ec7U,
  0xbde5d017bdfaf1efU, 0x3d437916bdb8e82aU, 0x3e1e7ddbbd86b7c7U, 0xbe0c003dbd73053eU,
  0x3aa90ec7bdae573dU, 0x3d290ec73e27bca9U, 0xbddde365bdeb188dU, 0x3cbe30a0be193564U,
  0xbdc8c18cbdabb302U, 0x3e1691293d0ea478U, 0xbe001d333e129ad1U, 0xbdd0ae3ebdce0a03U,
  0x3dc61d51bd4e0a03U, 0xbe212216bdf3053eU, 0x3d095c02bda3c651U, 0xbde5d0173dd0ae3eU,
  0x3d290ec7bc687452U, 0x3e17e347be1bd99fU, 0xbd339fb3bd8c003dU, 0xbda3c651bd535279U,
  0xbdf3053e3e25186eU, 0xbdb39fb33deb188dU, 0xbd8ea478be129ad1U, 0xbdfd962abdc37916U,
  0xbdf5a9793e04138bU, 0x3cbe30a03ca90ec7U, 0x3dc0d4dbbdf84db4U, 0x3db39fb33d816f50U,
  0xbc895c023dae573dU, 0x3c687452bd23c651U, 0xbe1fcff8be227433U, 0x3b7d962abb7d962aU,
  0xbcd35279bde87452U, 0x3d1e7ddbbdbb8c65U, 0xbe0809e4bd095c02U, 0xbd9691293d9bd99fU,
  0x3d895c02bd8c003dU, 0x3de087a03e1e7ddbU, 0xbdce0a03bbd35279U, 0xbd095c023d9148b3U,
  0xbd23c6513c9e7ddbU, 0x3cfd962abe266a8cU, 0xbd9691293e1d2bbdU, 0xbdc37916bdd0ae3eU,
  0x3e0aae1f3dbb8c65U, 0x3d816f503df5a979U, 0xbd13ecee3df5a979U, 0xbc535279bdd0ae3eU,
  0x3e1bd99f3bd35279U, 0x3d1e7ddb3aa90ec7U, 0x3db0fb783cbe30a0U, 0xbc687452bdabb302U,
  0xbd339fb3bc93eceeU, 0xbe1a8782bdc8c18cU, 0xbd535279be0565a9U, 0x3d9148b3be001d33U,
  0xbd437916bd48c18cU, 0xbc5352793de32bdbU, 0x3ddde365bdcb65c7U, 0x3e0aae1f3da90ec7U,
  0x3dec0604bd7ce1e0U, 0x3d0f4ccc3d97babaU, 0xbdd6f332bddf6120U, 0x3d06dedebcb97271U,
  0x3e245f9fbdce8544U, 0x3dca4e4dbd2028a8U, 0x3db53b7abe6c0604U, 0xbc289696bdc1e05fU,
  0xbd2896963e008c6cU, 0x3e06dedebda45f9fU, 0xbc06dede3d0f4cccU, 0xbe1168473dec0604U,
  0xbdca4e4d3e008c6cU, 0x3e4832d23cfce1e0U, 0x3e3da9683e1bf1b1U, 0xbe1bf1b13b06dedeU,
  0x3db53b7abd5b2a29U, 0x3dbda968be0f4cccU, 0xbd82a7e7bd41e05fU, 0xbb86dede3dd2bc3bU,
  0xbe02a7e7bd8b15d5U, 0x3e2ccd8c3e02a7e7U, 0x3bca4e4d3dc1e05fU, 0xbd289696bd86dedeU,
  0x3d7ce1e0be4a4e4dU, 0x3da896963d97babaU, 0xbd86dede3e17babaU, 0xbd2028a8bda028a8U,
  0x3c86dede3b86dedeU, 0x3da028a83e02a7e7U, 0x3e19d6353c4a4e4dU, 0xbe06dede3e1383c3U,
  0x3d8b15d53d06dedeU, 0xbc289696bc97babaU, 0xbe159f3e3e54d7b6U, 0xbe2028a8bddf6120U,
  0xbd9383c33dc1e05fU, 0xbcdb2a29bdb10483U, 0xbca8969600000000U, 0x3e2ee908bcec0604U,
  0xbe67cf0ebcfce1e0U, 0xbe008c6cbd8b15d5U, 0xbe02a7e7bdf03cfbU, 0x3e04c3633de39817U,
  0xbe08fa593dd6f332U, 0x3df8aae93ddb2a29U, 0x3d2028a8be310483U, 0x3da028a83c6c0604U,
  0xbd17bababcca4e4dU, 0xbd41e05f3e2028a8U, 0xbdce8544bde7cf0eU, 0x3dbda968bdf03cfbU,
  0x3d8b15d53d2028a8U, 0x3e353b7abe1e0d2cU, 0xbd0f4ccc3d8b15d5U, 0x3da896963e08fa59U,
  0x3d06dede3d4a4e4dU, 0x3df473f23d97babaU, 0xbcec06043ddb2a29U, 0x3d82a7e7bdc1e05fU,
  0xbd8f4cccbc06dedeU, 0x3e19d635bc289696U, 0xbd9bf1b1be08fa59U, 0xbcec06043e85d120U,
  0x3c97baba3d397271U, 0x3d2028a83daccd8cU, 0x3d6398173de39817U, 0x3e0d3150bc86dedeU,
  0xbd8f4ccc3ddf6120U, 0xbe4c69c8bd86dedeU, 0x3d6c06043da89696U, 0x3e0d3150be267b1aU,
  0xbdd2bc3b3e41e05fU, 0xbe2ee9083e617c9bU, 0xbe4617563cfce1e0U, 0xbdcdb32cbe02e662U,
  0x3d60665e3cb38518U, 0x3aef5c203dafc7a8U, 0x3df319903e02e662U, 0xbdd52e0cbd49f5bbU,
  0xbdef5c203e2a2b7fU, 0x3d159994bde0665eU, 0x3dbafff93b6f5c20U, 0x3e2fc7a83e0e1eb3U,
  0x3ddca8ee3dc27adaU, 0xbe20d1e6bde423ceU, 0xbe17784c3d427adaU, 0x3d9957043e60665eU,
  0xbde0665e3e11dc24U, 0xbe1ef32d3db38518U, 0x3de7e13fbddca8eeU, 0x3d06a3d23dbebd6aU,
  0xbda84cc63de0665eU, 0x3d51709c3def5c20U, 0x3cef5c20bcb38518U, 0x3d995704bc6f5c20U,
  0x3de0665ebdcdb32cU, 0xbc959994bdd1709cU, 0x3ce0665ebe5ca8eeU, 0x3e3cdeb13cb38518U,
  0x3d8e1eb33e427adaU, 0x3da0d1e63d86a3d2U, 0x3d248f563d67e13fU, 0x3d06a3d2be0e1eb3U,
  0x3e552e0c3d0e1eb3U, 0xbe4f91e4bc6f5c20U, 0x3dac0a373cd1709cU, 0x3d338518bd06a3d2U,
  0xbaef5c203d0e1eb3U, 0x3dc27adabd67e13fU, 0x3d248f563da0d1e6U, 0xbdc6384a3d338518U,
  0x3df319903e2c0a37U, 0x3c1599943df31990U, 0xbdbafff9be6d7d68U, 0x3d0e1eb3bbb38518U,
  0xbe1d14753dfe51e2U, 0x3e0c3ffbbc338518U, 0x3d86a3d23c338518U, 0x3e0c3ffbbd1d1475U,
  0xbdbebd6a3d51709cU, 0xbc9599943e08828aU, 0x3deb9eb03ca48f56U, 0x3e284cc63d76d701U,
  0xbe6602873e1ef32dU, 0xbc6f5c20bbef5c20U, 0x3c959994be31a660U, 0x3de0665e3c338518U,
  0x3d06a3d23d6f5c20U, 0x3d67e13f3de7e13fU, 0x3d51709cbdfe51e2U, 0xbd58eb7dbe0e1eb3U,
  0x3bb38518bdc6384aU, 0x3e1957043dbafff9U, 0x3cef5c203de423ceU, 0x3aef5c20be284cc6U,
  0x3cd1709cbb6f5c20U, 0xbd76d701bd248f56U, 0x3dbafff9bcef5c20U, 0x3de7e13fbe552e0cU,
  0x3aef5c203dafc7a8U, 0xbd6f5c20bd7e51e2U, 0xbe3ebd6a3d427adaU, 0xbd427adabd959994U,
  0x3d76d701bc6f5c20U, 0x3b6f5c203d995704U, 0xbd60665e3d248f56U, 0x3d1d14753dbafff9U,
  0x3e0a6142be284cc6U, 0xbda84cc6bde423ceU, 0x3c7524e83d1c0037U, 0xbd82ede53decc977U,
  0xbd05b70a3d2724cdU, 0x3e1c00373dc0371fU, 0xbdb24963be22f714U, 0x3dd0ee003cbd6df9U,
  0x3b85b70abd05b70aU, 0xbd4e24dabe088030U, 0xbdd3b7263decc977U, 0x3d430044bd82ede5U,
  0x3cd3b726bdaf803dU, 0xbda724cd3da45ba7U, 0xbdcb5bb53dc0371fU, 0xbd5949713cbd6df9U,
  0xbdf25bc3be25c03aU, 0x3e1c0037be30e4d0U, 0x3db51289be02ede5U, 0xbde7372c3e17d27eU,
  0x3ab249633dd6804bU, 0x3d10dba03d4e24daU, 0xbc9c0037be1c0037U, 0xbdc30044bd3d6df9U,
  0x3c5edbbc3d166decU, 0xbcd3b7263c5edbbcU, 0xbdecc977be045277U, 0x3d1c00373cd3b726U,
  0xbe25c03a3c324963U, 0x3e10dba0bd8024bfU, 0x3e0f770e3e018952U, 0x3dd94971bdf7ee0eU,
  0x3c48928f3e088030U, 0x3c85b70abdbaa4d4U, 0x3cbd6df9bd05b70aU, 0xbe124033bdfab733U,
  0x3d2cb7183d90dba0U, 0xbde46e07bcbd6df9U, 0x3cdedbbc3e071b9dU, 0xbda45ba7be1ec95cU,
  0x3e05b70abd5edbbcU, 0xbb324963bddc1296U, 0xbd2192823e0f770eU, 0x3daf803dbb85b70aU,
  0xbd993711bd53b726U, 0x3dd0ee00bdb24963U, 0xbd8880303dc0371fU, 0x3d82ede53d966decU,
  0x3de1a4e1bdb24963U, 0xbdb24963bd85b70aU, 0xbd0024bfbe193711U, 0xbe0880303d993711U,
  0xbc1c00373e1c0037U, 0x3e13a4c6be166decU, 0xbd90dba0be05b70aU, 0x3d888030be05b70aU,
  0xbdb7dbaebc48928fU, 0xbe13a4c63d0024bfU, 0x3d6a00523d2cb718U, 0xbdfab7333decc977U,
  0xbcea00523cd3b726U, 0x3c324963bd0024bfU, 0xbe25c03a3dfd8059U, 0x3d2724cdbd324963U,
  0xbe0024bfbe17d27eU, 0x3d888030bca724cdU, 0xbd5edbbc3bdedbbcU, 0xbd3249633e124033U,
  0xbdd3b726be045277U, 0xbda9edf2be2cb718U, 0x3e13a4c63dea0052U, 0x3d10dba03dea0052U,
  0xbe29edf2bcd3b726U, 0x3da724cdbd324963U, 0xbdea0052bd166decU, 0x3d9c0037bd888030U,
  0xbe202defbd53b726U, 0xbd797eee3d3eca7aU, 0x3e26f12b3e10ed7fU, 0xbccd7797bda51b87U,
  0xbe166e6abd301d5dU, 0x3db773ebbe67268aU, 0x3e5c24b4bd841606U, 0x3e1bef553e49cc50U,
  0x3d4d7797bde37b42U, 0xbe33c8a4bd6ad1d1U, 0x3e3cf4d63e33c8a4U, 0xbcb01d5d00000000U,
  0x3e1bef553e444b65U, 0x3d92c323be217040U, 0xbd8f17dbbe6550e6U, 0x3dc621083e10ed7fU,
  0xbdf228603b6ad1d1U, 0xbcb01d5d3db3c8a4U, 0xbdd8796d3e2345e3U, 0x3c8416063aead1d1U,
  0x3c92c3233db3c8a4U, 0x3e3cf4d6bd041606U, 0x3d966e6a3e68fc2dU, 0xbe5dfa58bca17040U,
  0xbccd77973db01d5dU, 0xbda8c6cebdee7d18U, 0x3dac72153ccd7797U, 0x3db773eb3e56a3c9U,
  0x3d87c14dbbead1d1U, 0x3cdc24b400000000U, 0xbe10ed7f3e26f12bU, 0x3e52f8823d041606U,
  0x3d2170403cdc24b4U, 0xbe1bef55bd12c323U, 0x3d0b6c94U, 0xbe0416063df22860U,
  0xbca170403df5d3a7U, 0xbdcd7797bd87c14dU, 0xbe1a19b13d54ce25U, 0x3e3cf4d6bbead1d1U,
  0x3df97eee3d9a19b1U, 0xbdc621083c12c323U, 0xbda51b87bd8b6c94U, 0x3e26f12b3dd4ce25U,
  0xbccd7797bdcd7797U, 0xbcead1d13e2c7215U, 0xbe28c6cebe1498c6U, 0x3e2345e33d301d5dU,
  0xbd6ad1d13c4d7797U, 0xbd8b6c94bd841606U, 0x3cf97eeebd3773ebU, 0xbd9a19b13dfd2a35U,
  0xbdf22860bd8b6c94U, 0x3d797eee3d6ad1d1U, 0x3e2a9c72bbead1d1U, 0xbd8f17db3e0996f0U,
  0xbe5a4f103d87c14dU, 0x3d637b42bd301d5dU, 0x3e5fcffb3de7268aU, 0x3c841606bd301d5dU,
  0x3e2a9c72bbead1d1U, 0xbc301d5d3d92c323U, 0x3dcd77973c92c323U, 0x3e05eba9bdc62108U,
  0x3de37b42bcf97eeeU, 0x3dc62108be28c6ceU, 0x3ccd7797bbb01d5dU, 0xbdd122de3e217040U,
  0x3d92c3233df22860U, 0xbe0d4238bdee7d18U, 0xbe1f9a9cbb6ad1d1U, 0x3e1dc4f8be07c14dU,
  0xbd301d5d3dee7d18U, 0x3d1a19b1be217040U, 0x3e1bef553e2c7215U, 0x3c6ad1d1bd806abeU,
  0x3e6008533dd61e9cU, 0x3d3665eebafdc577U, 0x3cede9203e1aa455U, 0x3cde0cc83e1aa455U,
  0xbd86d0e7bd464245U, 0xbd8ac7fdbdb26ed8U, 0xbd268996bdb26ed8U, 0xbcae77c2bdda15b2U,
  0xbe12b629bdfdc577U, 0x3dd61e9cbe10ba9eU, 0x3e7bc9ecbdb665eeU, 0x3e2e77c2bdf9ce61U,
  0xbe326ed8be02d9d1U, 0x3c9e9b6abc7dc577U, 0x3cfdc577be2096f5U, 0xbdc642453dda15b2U,
  0xbe04d55c3d5e0cc8U, 0x3c1e9b6a3d3e5419U, 0x3dd22787bdf9ce61U, 0x3de203debd82d9d1U,
  0xbe06d0e7bdb26ed8U, 0xbcbe5419bde5faf4U, 0x3e1aa455be00de46U, 0xbdede9203e02d9d1U,
  0x3e0ac7fdbcae77c2U, 0xbe3861783e30734dU, 0xbe06d0e7bda68996U, 0x3e10ba9e3e326ed8U,
  0xbd3e54193dd61e9cU, 0xbafdc577bd65faf4U, 0x3e3c588ebd82d9d1U, 0xbe18a8ca3de5faf4U,
  0x3d8ac7fd3da68996U, 0xbcbe54193c3e5419U, 0x3d86d0e7bd06d0e7U, 0x3dc24b2fbd92b629U,
  0x3cede9203e326ed8U, 0xbd92b6293d8ac7fdU, 0xbe1e9b6a3e06d0e7U, 0xbdede9203e600853U,
  0x3d06d0e73d9aa455U, 0xbcce30713d06d0e7U, 0xbe18a8ca3d5e0cc8U, 0x3e600853bb7dc577U,
  0xbd4e30713c7dc577U, 0x3daa80ac3d9aa455U, 0x3d4642453d8ebf13U, 0xbd92b629be14b1b4U,
  0xbdde0cc83cbe5419U, 0x3e0ebf13be16ad3fU, 0x3e16ad3f3e12b629U, 0x3df9ce61bd7dc577U,
  0xbd82d9d13df9ce61U, 0x3e346a633d7dc577U, 0x3d65faf43e386178U, 0x3d82d9d13e18a8caU,
  0xbdc642453d7dc577U, 0x3d16ad3fbda29280U, 0x3d5e0cc83d3665eeU, 0x3d9e9b6a3d268996U,
  0x3e326ed8bcede920U, 0xbe229280be2096f5U, 0xbdbe54193d7dc577U, 0x3df1e0353e1c9fdfU,
  0x3df5d74b3e1e9b6aU, 0xbc1e9b6abda29280U, 0xbafdc577be12b629U, 0x3cce30713da68996U,
  0x3dce30713d5e0cc8U, 0x3dd61e9cbdae77c2U, 0xbe2a80acbe386178U, 0x3df1e035be16ad3fU,
  0xbde203de3dc24b2fU, 0xbde5faf400000000U, 0x3d561e9cbd82d9d1U, 0xbe1565413dd4a731U,
  0xbd218239bdb70b0dU, 0xbdbf1e5dbd89484aU, 0x3dc9e2c73c57584cU, 0xbca182393dac46a3U,
  0xbe1d7891be26e46eU, 0xbdf4f470bd96bdcfU, 0x3d8bf964be0eaa7fU, 0x3c41cf773d26e46eU,
  0xbca18239bd77a58aU, 0xbcb70b0dbd0134faU, 0xbd724355bd677eebU, 0x3de77eeb3d51f617U,
  0x3cf7a58abe1d7891U, 0x3d96bdcfbccc93e2U, 0xbd57584c3d1c2004U, 0xbdece120bcb70b0dU,
  0xbd16bdcfbdac46a3U, 0xbdf7a58a3db70b0dU, 0xbdb70b0dbd0134faU, 0x3d9ed11ebe258be1U,
  0x3da6e46ebe26e46eU, 0xbdef923bbe1c2004U, 0x3e16bdcfbd5cba81U, 0x3c0134fa3ddcba81U,
  0x3e0d51f23d06972fU, 0xbd8bf9643e196ee9U, 0x3d915b9a3da18239U, 0xbd115b9abbd7584cU,
  0xbd996ee9bd6ce120U, 0x3d41cf773daef7beU, 0x3d51f6173db459f3U, 0x3c41cf77bc8bf964U,
  0x3e156541be2aee16U, 0x3e0d51f2bc8134faU, 0xbe12b427be03e615U, 0xbe0aa0d7bdc731acU,
  0x3d2c46a3bd51f617U, 0x3dbf1e5dbdb9bc28U, 0x3d26e46ebdc731acU, 0xbd621cb63d96bdcfU,
  0xbdda0966bc41cf77U, 0x3d677eebbd9ed11eU, 0x3e16bdcfbccc93e2U, 0xbca182393dfd07bfU,
  0x3dd4a7313dbf1e5dU, 0xbd6ce120bd3c6d42U, 0x3d51f617be2aee16U, 0xbe22dac6bdac46a3U,
  0xbd51f617bd57584cU, 0xbde21cb6bda18239U, 0x3d8eaa7f3e2029acU, 0xbd0134fabe22dac6U,
  0xbc6ce120bd77a58aU, 0xbdc48092bdaef7beU, 0xbe0aa0d7bd0134faU, 0xbdc48092be18165cU,
  0xbd9c2004bd7d07bfU, 0x3e1ac776bd4c93e2U, 0xbdb459f33dd7584cU, 0x3de21cb63e2029acU,
  0x3def923bbdcf44fcU, 0xbd370b0dbdc48092U, 0xbd86972f3db1a8d8U, 0x3e140cb4bb8134faU,
  0xbe140cb4bbac46a3U, 0xbc2c46a3bd51f617U, 0xbdf4f470bd677eebU, 0xbdbf1e5dbd0bf964U,
  0xbd06972fbdbf1e5dU, 0x3d77a58a3db459f3U, 0xbc96bdcfbd940cb4U, 0x3d26e46ebdc731acU,
  0x3e09484a3e16bdcfU, 0xbe2995883d51f617U, 0xbe2caf213d1f6695U, 0x3e307ab73c5488c6U,
  0x3e15e99e3e492605U, 0x3d63b71e3d7a7ca1U, 0xbc97cf693cc55a6fU, 0xbe28e38b3db62c18U,
  0x3ddfeb88bd84d57cU, 0x3e19b5343e0109e6U, 0xbdfa7ca13cb62c18U, 0xbdf6b10bbdfe4836U,
  0x3af2e575be06bb47U, 0x3cd488c63e0e5273U, 0x3df2e5753bf2e575U, 0xbe10383dbd08a112U,
  0x3def19dfbd2e94ecU, 0x3c362c183e1d80caU, 0xbc5488c6bc72e575U, 0xbe06bb473daac956U,
  0xbe455a6fbe2caf21U, 0x3e4cf19b3e1f6695U, 0x3cc55a6fbd6b4e49U, 0xbc17cf69bd2e94ecU,
  0xbe23322b3dc55a6fU, 0x3e1403d3bd362c18U, 0x3d2e94ecbca6fdc0U, 0xbb72e5753e17cf69U,
  0x3d8c6ca8be326082U, 0x3d90383d3d97cf69U, 0xbd5c1ff23dc92605U, 0x3d5488c6bd97cf69U,
  0x3e02efb13e04d57cU, 0xbe1b9affbc97cf69U, 0xbe04d57cbe08a112U, 0x3d3dc3433d84d57cU,
  0x3c97cf69bb72e575U, 0xbc97cf693d0109e6U, 0xbd9f6695bdeb4e49U, 0xbe47403abdc92605U,
  0x3dfa7ca13cd488c6U, 0x3dbdc343bd8c6ca8U, 0x3e23322b3e70ffaaU, 0x3e04d57cbd9f6695U,
  0x3d9403d3bddfeb88U, 0x3e26fdc03da6fdc0U, 0x3e5a3a273d10383dU, 0xbe0c6ca83cb62c18U,
  0x3e2517f63dc92605U, 0x3d5c1ff23e47403aU, 0x3c17cf69bdb9f7aeU, 0x3e26fdc0bd9b9affU,
  0x3dd488c63ce3b71eU, 0xbe0a86dd3c17cf69U, 0xbdb62c18bd362c18U, 0xbd10383d3e3dc343U,
  0x3deb4e49be10383dU, 0xbdae94ecbce3b71eU, 0x3dbdc343bd2e94ecU, 0xbd9b9aff3e5a3a27U,
  0xbe04d57cbd455a6fU, 0xbe08a112bd3dc343U, 0x3dfa7ca13cc55a6fU, 0xbd0109e63e2517f6U,
  0xbe06bb473e418ed9U, 0xbcc55a6f3db62c18U, 0xbdc92605baf2e575U, 0xbe06bb47bcf2e575U,
  0x3e50bd313e5feb88U, 0xbe34464d3e39f7aeU, 0xbce3b71e3c5488c6U, 0x3c97cf69be2e94ecU,
  0x3e4374a4bd455a6fU, 0x3dc18ed93dbdc343U, 0x3deb4e493e2517f6U, 0x3d8109e63e1b9affU,
  0x3dc18ed93e0c6ca8U, 0x3d63dd48bca6bae3U, 0xbde6a4a93d1b9d5dU, 0xbbde4e843e0f1c25U,
  0xbe098d62bdd5f860U, 0x3dd0699c3d5330feU, 0xbd907fd6be26bae3U, 0x3e1fc86f3d8af113U,
  0xbdec336d3d9e64beU, 0xbe0f1c25bd5330feU, 0x3df48992be212c20U, 0x3ce96c0bbe3074b9U,
  0xbdf1c2303d829aeeU, 0x3df489923daf1108U, 0xbe107fd63d98d5fbU, 0xbe1d010ebab1d86aU,
  0x3e029aee3d8829b1U, 0xbd58bfc13d056250U, 0x3d960e99be18d5fbU, 0x3d856250be1e64beU,
  0xbd6efacebcffa718U, 0x3c0562503dde4e84U, 0x3de115e63c9b9d5dU, 0xbe029aee3e0af113U,
  0xbd212c20bbde4e84U, 0xbe1b9d5dbe1e64beU, 0x3c9b9d5dbe134738U, 0xbda12c20bd5e4e84U,
  0x3e1d010ebe3074b9U, 0x3d107fd63d856250U, 0xbdffa718be26bae3U, 0x3d8af1133dd330feU,
  0xbe1347383dec336dU, 0xbe212c20be0829b1U, 0x3d98d5fbbdac49a7U, 0x3d2c49a73dbcf5f1U,
  0xbe107fd63d26bae3U, 0x3d8af1133dba2e8fU, 0xbdeefacebd58bfc1U, 0x3de6a4a9bdfcdfb7U,
  0xbc748992bcbcf5f1U, 0x3c31d86abdbfbd52U, 0x3dcda23bbdbfbd52U, 0xbe212c20bd6efaceU,
  0xbdb49fccbddb8723U, 0xbd9e64be3d856250U, 0xbe0c54c4bdf750f3U, 0xbcffa7183d9b9d5dU,
  0xbe0829b1be03fe9fU, 0x3c31d86abdd8bfc1U, 0x3e01373d3db49fccU, 0x3d1b9d5dbd4284b4U,
  0xbda12c203d63dd48U, 0xbde3dd48bda6bae3U, 0xbde96c0b3cc81377U, 0x3dbcf5f13d63dd48U,
  0x3dc54c16bd9b9d5dU, 0x3cb1d86a3d5330feU, 0xbab1d86abddb8723U, 0xbe1e64bebd58bfc1U,
  0xbd7fa7183d98d5fbU, 0x3bde4e84bd4da23bU, 0xbdb7672d3d7a1855U, 0xbb31d86a3bde4e84U,
  0x3ddb8723bdec336dU, 0xbe23f3823c056250U, 0xbdd8bfc13d2c49a7U, 0x3dec336d3cc81377U,
  0x3e212c20bdb1d86aU, 0xbd8db874be0af113U, 0x3dc54c16bd907fd6U, 0xbd4284b4be1d010eU,
  0x3d63dd483d9b9d5dU, 0x3dbfbd52bdb1d86aU, 0xbdeefacebe281e94U, 0xbda6bae3bcc81377U,
  0xbe1add84be08031bU, 0x3d679fe73dc49c92U, 0xbc5776fb3da44ab9U, 0xbca1993c3d117050U,
  0xbe03f8e03aac5f2fU, 0xbe1017913bd776fbU, 0x3db9d69fbe25a377U, 0xbe0d6615bc5776fbU,
  0xbe08031bbde79fe7U, 0xbe29adb2be101791U, 0x3d5214013dbf3998U, 0xbe1add84bdac5f2fU,
  0xbc41eb153d814763U, 0xbcd776fbbdbc881bU, 0xbe2b06713dfd2bcdU, 0xbd679fe7bce23ceeU,
  0xbd86aa5d3e1d8f01U, 0x3d31c228bdf265daU, 0xbe1ee7bf3e1ee7bfU, 0xbe08031b3e08031bU,
  0xbda9adb23dc1eb15U, 0x3db473a5bcd776fbU, 0xbe0147633d679fe7U, 0x3d3c881b3dac5f2fU,
  0xbd917050bddcd9f4U, 0xbe1017913e157a8bU, 0xbe21993cbdd21401U, 0x3b2c5f2fbd4cb108U,
  0x3e1421ccbe26fc36U, 0x3e26fc363e1c3643U, 0x3d521401bdcf6285U, 0xbe1017913dbc881bU,
  0xbdac5f2fbd623ceeU, 0x3ced02e13e1ee7bfU, 0xbcd776fbbdffdd4aU, 0x3d1170503dd4c57eU,
  0xbe20407ebdc1eb15U, 0xbdc74e0e3c2c5f2fU, 0xbd26fc36bdd4c57eU, 0x3cc1eb15be0c0d56U,
  0x3e26fc36bd917050U, 0x3d9ee7bfbe26fc36U, 0x3e244ab9bcac5f2fU, 0x3cac5f2f3e101791U,
  0x3e1421ccbdfd2bcdU, 0x3e22f1fa3b814763U, 0x3db1c228bd77c8d4U, 0xbd6d02e13ddf8b71U,
  0xbd8c0d56bdc9ff8bU, 0x3d4cb1083e21993cU, 0xbbd776fbbdc74e0eU, 0xbd5cd9f43dc9ff8bU,
  0x3e06aa5dbcccb108U, 0x3dfa7a50be157a8bU, 0xbe21993c3d31c228U, 0xbdefb45d3d21993cU,
  0x3d21993cbdea5164U, 0xbe0147633e182c07U, 0x3e1984c63da44ab9U, 0xbdc1eb15bd26fc36U,
  0xbde4ee6a3d474e0eU, 0xbe1d8f013e014763U, 0xbd96d349be1ee7bfU, 0xbdda2877bd0c0d56U,
  0x3d2c5f2fbc41eb15U, 0x3d1170503dc49c92U, 0xbda44ab93d16d349U, 0xbda9adb23c96d349U,
  0xbe1d8f01be06aa5dU, 0x3e21993c3dac5f2fU, 0xbb2c5f2f3d4cb108U, 0x3d679fe7bd9984c6U,
  0xbdb473a53e0d6615U, 0x3d86aa5d3d9c3643U, 0xbbd776fb3e1d8f01U, 0x3d942be63da13ed4U,
  0xbd942be63d37090dU, 0xbdf867b6bdefb06cU, 0x3e32ad683dae51c3U, 0xbdbfc0563da13ed4U,
  0xbd9ce330bc740c11U, 0x3e142be6bdbfc056U, 0x3e0946ca3deb54c7U, 0x3e4f0118U,
  0xbda59a79bdccd345U, 0xbdae51c3bce29d7eU, 0x3d0b749c3d1ce330U, 0x3e1659b83de6f922U,
  0x3d3fc0563dccd345U, 0x3c9ce330bdeb54c7U, 0xbe29f61e3da13ed4U, 0x3dd12eea3e27c84cU,
  0x3e57b861bcae51c3U, 0x3dbb64b2bdb2ad68U, 0xbd740c11bde6f922U, 0x3e6d829abda59a79U,
  0x3e27c84c3d2e51c3U, 0x3d3fc0563d1ce330U, 0xbdfcc35b3d4877a0U, 0xbdb7090dbcd12eeaU,
  0xbdefb06cbd4877a0U, 0x3dc877a0bd6b54c7U, 0xbe0718f7bdb7090dU, 0x3e4877a03ce29d7eU,
  0x3e0fd041bd740c11U, 0xbdd9e634be11fe13U, 0xbc740c113d1ce330U, 0x3dbfc0563d0b749cU,
  0x3e7a95883e6b54c7U, 0xbd7cc35bbdd58a8fU, 0xbe2e51c3bdc877a0U, 0x3da59a793b8b749cU,
  0x3da9f61e3dae51c3U, 0x3dbb64b23e29f61eU, 0xbdbfc056be213ed4U, 0x3e02bd523d142be6U,
  0x3defb06c3d59e634U, 0xbe0da26e3d9ce330U, 0xbc512eea3d8718f7U, 0xbd259a793e32ad68U,
  0x3cf40c113de6f922U, 0xbe307f953dccd345U, 0xbe2e51c33d0b749cU, 0x3d8fd0413e5e41d9U,
  0x3e18878b3d6b54c7U, 0x3e3fc056bda9f61eU, 0xbd4877a0bb0b749cU, 0x3c9ce3303defb06cU,
  0x3e5e41d9bd942be6U, 0x3e236ca73e4649ceU, 0xbd259a793bd12eeaU, 0xbe34db3a3d8b749cU,
  0x3e6d829a3e8a5db3U, 0x3d259a79bd8b749cU, 0xbe0718f7bda9f61eU, 0x3d59e6343c9ce330U,
  0xbd142be63c9ce330U, 0x3d82bd523e66f922U, 0x3e0da26e3dd9e634U, 0xbe0b749cbdd9e634U,
  0xbda13ed43e27c84cU, 0x3e66f922bd4877a0U, 0x3d740c113e4cd345U, 0xbd9ce330bc8b749cU,
  0x3e2c23f13c0b749cU, 0x3bd12eea3d4877a0U, 0x3d8b749c3e008f80U, 0x3dd12eeabdd58a8fU,
  0x3cf40c113d4877a0U, 0x3d4877a03e2c23f1U, 0xbdd7c4803ced5826U, 0xbdb76706bd86dad0U,
  0xbdac9d33bdaf4fa8U, 0xbd0175e6bdbccbf0U, 0xbdccfaad3df821f9U, 0xbd91a4a3bdfd86e3U,
  0x3d17098d3c17098dU, 0xbd9f20ebbe0d98f4U, 0x3e04285b3d0c3fb9U, 0x3dbf7e653ddfdbdeU,
  0x3d11a4a33b8175e6U, 0x3db76706bdccfaadU, 0x3d91a4a3bd376706U, 0xbdaf4fa8bd6d5826U,
  0x3da9eabebd21d360U, 0xbd0175e6be15b052U, 0xbdf00a9bbdf56f85U, 0xbd5d29693bd7c480U,
  0x3dd25f963cf821f9U, 0xbe28918400000000U, 0x3d99bc01bdba197bU, 0xbe12fddd3e0ae67fU,
  0x3df56f85be25df0fU, 0xbe25df0fbe02cf21U, 0x3df821f9bd8c3fb9U, 0x3aac9d33bd8175e6U,
  0x3e1862c73ddfdbdeU, 0x3cf821f9be04285bU, 0xbcccfaadbe04285bU, 0xbe25df0f3dda76f5U,
  0xbe0c3fb93dccfaadU, 0xbcc230d93dbccbf0U, 0x3c8175e6bc6d5826U, 0xbdb2021dbde7f33dU,
  0x3d32021dbdf2bd10U, 0x3dd5120bbdbf7e65U, 0xbda73849be02cf21U, 0xbda9eabe3cccfaadU,
  0xbd525f963dca4838U, 0x3d9c6e76bd4795c3U, 0xbde28e533c4230d9U, 0xbdb767063e2b43f9U,
  0x3d21d360be1b153cU, 0xbd67f33dbe17098dU, 0x3d7d86e33d4795c3U, 0x3cc230d93d06dad0U,
  0x3dba197b3d5d2969U, 0xbe0d98f43e273849U, 0xbdf2bd10bdfad46eU, 0xbded58263e1862c7U,
  0x3e1f20ebbd525f96U, 0x3df821f93da1d360U, 0x3ddfdbdebe1b153cU, 0xbe1862c7bd97098dU,
  0x3e0d98f43e21d360U, 0xbd1c6e763d8ef22eU, 0x3e058195be058195U, 0xbd0c3fb9bd9f20ebU,
  0x3d7821f9bddd2969U, 0x3c6d5826be1dc7b1U, 0xbe12fdddbd86dad0U, 0xbc2c9d33bdeaa5b1U,
  0x3cf821f93dda76f5U, 0x3e0d98f4bdc230d9U, 0x3e0581953cccfaadU, 0xbdc230d9be11a4a3U,
  0x3cb767063d2c9d33U, 0xbe1c6e76bc17098dU, 0xbe1862c73dc4e34eU, 0xbe1dc7b1bd4cfaadU,
  0x3da1d3603ddfdbdeU, 0x3df56f85bda73849U, 0x3cccfaad3da1d360U, 0xbdd7c480bc2c9d33U,
  0x3d57c480bdf00a9bU, 0xbe33ba98bdfa2ebfU, 0x3dc0ab5b3ce60d8fU, 0xbe2559bfbe324a82U,
  0xbde8edbbbd324a82U, 0xbdda8ce23d0a0823U, 0xbd92a8a53dc94bddU, 0xbd0a08233cf18e3dU,
  0xbe33ba98bd438b87U, 0xbd4f0c34bd8ce84eU, 0xbe12a8a53e05b7e2U, 0x3db80ad9bdf46e68U,
  0x3d9e29523da3e9a9U, 0x3d718e3dbdaf6a57U, 0xbd3dcb30bd2c8a2bU, 0x3dd4cc8b3e08980dU,
  0x3cc38b87bd494bddU, 0x3d8a0823bbb80ad9U, 0x3d8fc87aU, 0xbe23e9a9bd324a82U,
  0xbd494bddbe324a82U, 0xbccf0c343d6bcde6U, 0xbbb80ad93cf18e3dU, 0xbd0a0823bde32d64U,
  0x3e1588d0be0e5864U, 0xbe369ac33d660d8fU, 0xbe0727f73ca1097eU, 0x3db80ad93debcde6U,
  0xbe2839eabd8fc87aU, 0xbd4f0c343ca1097eU, 0x3bb80ad93e05b7e2U, 0xbd8727f7bdb80ad9U,
  0xbe1b49273da6c9d5U, 0xbc4f0c34bdaf6a57U, 0xbe0b7838be1b4927U, 0x3e1b4927bde04d38U,
  0xbe12a8a53dd4cc8bU, 0x3d54cc8b3e0ce84eU, 0xbe1cb93d3e0fc87aU, 0x3da1097e3dfa2ebfU,
  0x3da1097ebbb80ad9U, 0x3d9868fcbe227994U, 0x3e11388fbd5a8ce2U, 0xbd494bddbe23e9a9U,
  0xbde04d38bd1b4927U, 0x3d9588d0be21097eU, 0xbccf0c34bd26c9d5U, 0xbe0fc87abe0fc87aU,
  0x3e05b7e2bd3dcb30U, 0x3d1588d0bdfd0eeaU, 0x3d21097ebde04d38U, 0xbdf74e94bd9588d0U,
  0xbe2b1a16bdd4cc8bU, 0x3d8447cc3c380ad9U, 0xbe33ba983dcc2c09U, 0x3c7d0eea3ccf0c34U,
  0x3d9e29523e1588d0U, 0xbe1e29523e0447ccU, 0xbd494bdd3c380ad9U, 0xbe1b4927be227994U,
  0xbb380ad93dd1ec60U, 0x3d380ad93ddd6d0dU, 0x3dbdcb303c9588d0U, 0xbda1097e3dc0ab5bU,
  0x3d494bddbe1f9968U, 0x3db52aaebdebcde6U, 0x3cc38b873d9e2952U, 0x3e19d911be1b4927U,
  0xbd9b4927bd380ad9U, 0xbd9b49273d92a8a5U, 0xbddd6d0dbd8447ccU, 0xbd2c8a2b3d92a8a5U,
  0x3d7d0eeabe0b7838U, 0xbc0a08233c21097eU, 0xbc4f0c343deeae11U, 0x3d604d383df18e3dU,
  0xbca1798e3d8ea2d7U, 0xbddf5f9ebd319f4fU, 0xbe0ffb52bdaeee5aU, 0x3c6cd46a3cf79840U,
  0x3d9ec898be1d701dU, 0x3de7727e3c41c510U, 0x3de7727ebd012e0bU, 0xbe1153ccbd6cd46aU,
  0xbc16b5b8bdea2374U, 0x3c574cbd3d9404c2U, 0x3e1abf28bd9966adU, 0x3dd49bc73d0bf1e1U,
  0x3e0ea2d7bda42a83U, 0x3d4726fcbddf5f9eU, 0x3e2ae4e93d2c3d64U, 0x3c8bf1e1be068ff6U,
  0xbe12ac47be0ea2d7U, 0xbdd49bc73d67727eU, 0xbe05377bbccc88e7U, 0xbe1153ccbe1966adU,
  0xbe1ec898bb2c3d64U, 0x3cc1c5103d574cbdU, 0xbe1404c2be242a83U, 0xbc012e0b3cf79840U,
  0x3d37013abcecd46aU, 0x3ddcaea83d51ead2U, 0xbdcc88e7bd51ead2U, 0x3dfcfa2bbdbc6325U,
  0xbb2c3d64be2582feU, 0x3d67727e3de4c189U, 0x3e2833f43daeee5aU, 0xbd37013a3de4c189U,
  0x3e068ff6bd812e0bU, 0x3c012e0bbdf23655U, 0x3d8bf1e1bda98c6eU, 0x3d6210933c812e0bU,
  0xbe1404c2be202113U, 0x3dcc88e7bd574cbdU, 0xbe26db793d9404c2U, 0x3dd49bc73dfa4935U,
  0xbdef855f3e155d3dU, 0xbc2c3d64bcecd46aU, 0x3e0ffb52bdf79840U, 0xbd319f4fbc574cbdU,
  0x3d83df01bdac3d64U, 0xbdc1c510bdd74cbdU, 0x3dcc88e7bcc1c510U, 0x3d0bf1e1be22d209U,
  0x3c574cbdbaac3d64U, 0x3d319f4fbda6db79U, 0x3db19f4fbdfcfa2bU, 0xbe180e32be22d209U,
  0x3bac3d643e1d701dU, 0xbc41c510bda42a83U, 0xbe0bf1e1be0a9966U, 0xbe2ae4e93d319f4fU,
  0xbe068ff6bb812e0bU, 0xbe26db79bd723655U, 0x3d96b5b83e2582feU, 0x3d83df013ccc88e7U,
  0x3d96b5b8bd8bf1e1U, 0x3e1c17a33dcc88e7U, 0x3d8bf1e1bdf23655U, 0xbd8940ecbd67727eU,
  0xbdc9d7f13def855fU, 0x3d9404c23d723655U, 0xbddf5f9e3dac3d64U, 0xbc96b5b8bdef855fU,
  0x3df236553dffab20U, 0xbd9153cc3e12ac47U, 0xbdfcfa2b3e12ac47U, 0x3da1798ebd41c510U,
  0xbda6db793b812e0bU, 0xbdd74cbdbc812e0bU, 0x3e1966adbd868ff6U, 0xbe2f67a8bdf40aa7U,
  0xbe0efe3e3e2026feU, 0xbde4c9fdbda7c753U, 0xbda026fe3d9886a8U, 0x3e0575d33c740aa7U,
  0xbcd589523e0945feU, 0x3e1886a8bbf40aa7U, 0xbdcde8fdbaf40aa7U, 0xbe4fd112bd8575d3U,
  0x3e4648a83e722292U, 0xbe4c00e83e4648a8U, 0x3e0575d3bdcde8fdU, 0x3dd58952bdc648a8U,
  0x3bb707fdbe0b2e13U, 0x3dbad828be0945feU, 0x3d27c753bda7c753U, 0x3bf40aa7be1886a8U,
  0xbce4c9fd3bb707fdU, 0xbde89a273d8d1629U, 0x3af40aa7be25df3eU, 0x3dcde8fd3dab977dU,
  0x3df40aa73b740aa7U, 0xbd27c753bde4c9fdU, 0x3dfbaafcbbb707fdU, 0x3e2f67a83c740aa7U,
  0x3e01a5a93e0b2e13U, 0x3e51b9283dbad828U, 0xbd4648a8bda026feU, 0xbd9c56d3be5f11bdU,
  0xbd90e653be0575d3U, 0x3e2f67a83e2f67a8U, 0xbe220f133d1886a8U, 0x3dcde8fdbdd58952U,
  0x3e075de93e1a6ebeU, 0x3ce4c9fd3dbad828U, 0xbce4c9fd3dcde8fdU, 0xbdf03a7cbe42787dU,
  0x3dca18d2bdff7b27U, 0xbd01a5a93d5d29a7U, 0xbd0945febd5d29a7U, 0x3dab977d3e27c753U,
  0xbd9c56d33db707fdU, 0x3e3337d33d3ea852U, 0xbcc648a83e10e653U, 0xbd5d29a73e0efe3eU,
  0xbe0575d33d2f67a8U, 0xbdf7dad2be3ea852U, 0x3af40aa7be0efe3eU, 0x3d4648a8bdab977dU,
  0x3d3ea8523dd9597dU, 0x3d64c9fd3ce4c9fdU, 0x3d9c56d33d558952U, 0x3e220f133d0945feU,
  0x3dcde8fd3d94b67eU, 0xbda7c753bd2026feU, 0x3cb707fd3e689a27U, 0xbe1e3ee83dc648a8U,
  0x3e14b67e3e0575d3U, 0x3e5b41923dfbaafcU, 0x3e577167bd27c753U, 0xbde0f9d2bd1886a8U,
  0x3e2b977d3dfbaafcU, 0x3e1886a8bc1886a8U, 0x3e2f67a8be2f67a8U, 0x3d8d16293db337d3U,
  0x3af40aa7bd2026feU, 0xbdca18d23e1e3ee8U, 0x3af40aa7bde89a27U, 0x3d3707fdbdc648a8U,
  0x3c3707fd3e59597dU, 0xbd4de8fd3e6c6a52U, 0xbce4c9fdbd558952U, 0x3de89a273de4c9fdU,
  0x3d10e6533e169e93U, 0xbc740aa7bd94b67eU, 0xbe079725bd770424U, 0xbd10fcdebdabd65cU,
  0x3e03901e3e1d11f0U, 0xbc965b90bdeef618U, 0xbdf704243d165b90U, 0xbda927033d0b9e2bU,
  0x3df1a571bc6c46beU, 0xbce189593d88eed1U, 0x3dc6afda3e2677a9U, 0x3c8b9e2bbd83901eU,
  0x3bd6cbf3bdff1231U, 0xbe0e4d84bd165b90U, 0xbe27cf56be063f78U, 0x3d56cbf3bcec46beU,
  0x3d8b9e2bbe190aeaU, 0x3e0cf5d7be1bba43U, 0xbd063f783e10fcdeU, 0xbe063f78bd5c2aa6U,
  0xbc56cbf33ddc2aa6U, 0xbd88eed1bde99765U, 0xbe165b90bd8e4d84U, 0xbd90fcdebcd6cbf3U,
  0x3d56cbf3bdff1231U, 0x3d415128be190aeaU, 0xbc00e0c53db693c2U, 0xbc165b90bda92703U,
  0xbd31350f3aabd65cU, 0x3dbbf275be292703U, 0xbdf1a5713d88eed1U, 0xbe1503e43d31350fU,
  0xbd66e80c3e0e4d84U, 0xbdc15128bd415128U, 0x3c6c46bebe0fa531U, 0xbdff1231bd10fcdeU,
  0x3e0fa531be251ffcU, 0x3d00e0c53e292703U, 0xbdec46bebaabd65cU, 0xbca118f6be00e0c5U,
  0x3d56cbf33dcc0e8dU, 0x3ddc2aa6bcb693c2U, 0x3d165b90bdcebde7U, 0x3e04e7cb3d3693c2U,
  0xbe2118f6bd10fcdeU, 0xbe13ac37be00e0c5U, 0xbdbbf2753babd65cU, 0xbd4c0e8dbd90fcdeU,
  0xbe2a7eafbd165b90U, 0x3cc151283d3bf275U, 0x3dd16d40be10fcdeU, 0xbc415128bbd6cbf3U,
  0xbcf70424bd88eed1U, 0xbe2677a9be251ffcU, 0x3e0e4d84bd2118f6U, 0xbd965b90bd3bf275U,
  0xbdfc62d73e04e7cbU, 0xbdd6cbf33de6e80cU, 0x3e2a7eafbe00e0c5U, 0xbc6c46be3da3c850U,
  0xbdabd65c3db1350fU, 0x3e1fc14a3d063f78U, 0x3ddc2aa63da92703U, 0xbdfc62d7bb2bd65cU,
  0x3e1d11f03df1a571U, 0x3d165b90bde18959U, 0x3e12548abe12548aU, 0x3e251ffc3cd6cbf3U,
  0xbe1a62973e0a467eU, 0x3db1350f3e1fc14aU, 0xbc165b903db693c2U, 0xbe190aea3d1bba43U,
  0xbd2118f63db693c2U, 0x3e0e4d843c00e0c5U, 0x3d8b9e2b3db9431bU, 0x3e0fa5313babd65cU,
  0x3df1a571bddc2aa6U, 0xbb7ccc41bdf4e5dfU, 0x3e0259523d064c83U, 0xbd8e32e53d74e5dfU,
  0x3d8e32e53d064c83U, 0xbd25e60b3df4e5dfU, 0xbda9d93cbe064c83U, 0xbbfccc41bb7ccc41U,
  0xbda9d93c3b7ccc41U, 0xbc1dffa93cfccc41U, 0xbbbd9931bd0e32e5U, 0xbbbd99313e418c62U,
  0x3e1c06103db9a600U, 0xbcfccc413c7ccc41U, 0x3c8e32e53c9dffa9U, 0x3d4d65f53d864c83U,
  0x3d9a0c78bda1f2daU, 0xbd25e60b3e08461bU, 0xbde5191b3df8d910U, 0x3e6cff7d3d922616U,
  0x3c9dffa93e7ad2a8U, 0xbe33b9363d25e60bU, 0xbda1f2da3d864c83U, 0x3dbd9931bcecff7dU,
  0xbccd65f53c3d9931U, 0xbd3d9931bdd54c57U, 0x3dbd9931bdd54c57U, 0xbe1c0610bdcd65f5U,
  0x3dfccc413afccc41U, 0x3da1f2da3e4972c4U, 0x3dc57f93be0a3fb4U, 0xbc8e32e53d922616U,
  0x3d4d65f53d3d9931U, 0x3dd54c573cecff7dU, 0xbe31bf9ebd922616U, 0x3dc57f933d65191bU,
  0x3e4b6c5c3dcd65f5U, 0xbe1a0c783d4d65f5U, 0x3dd15926bd7ccc41U, 0x3d864c833e21f2daU,
  0xbbbd99313d65191bU, 0xbe65191bbd1dffa9U, 0x3da1f2dabdc57f93U, 0x3e4385fa3c3d9931U,
  0xbdf0f2ae3d864c83U, 0xbd65191bbd5d32b9U, 0xbcbd9931bc1dffa9U, 0x3ddd32b9bdd54c57U,
  0x3e6cff7d3c9dffa9U, 0xbdb5b2cf3e3f92c9U, 0xbd161947bd064c83U, 0xbe1c0610be27dfa3U,
  0x3e064c83bd8e32e5U, 0xbbfccc41bd2dcc6dU, 0xbd9226163e1ff941U, 0xbdecff7d3dc18c62U,
  0xbda1f2da3d9a0c78U, 0x3e0259523d8a3fb4U, 0xbda5e60b3de5191bU, 0xbdf8d9103dbd9931U,
  0xbddd32b93e1812dfU, 0x3e0259523df8d910U, 0xbd457f933d0e32e5U, 0xbd25e60b3e33b936U,
  0x3d8e32e53e27dfa3U, 0xbdadcc6d3db5b2cfU, 0xbcadcc6dbd825952U, 0xbd25e60bbdb9a600U,
  0x3d457f933d35b2cfU, 0x3e2dcc6dbdadcc6dU, 0x3e21f2dabcecff7dU, 0xbe08461bbdadcc6dU,
  0x3c5d32b93c9dffa9U, 0xbd9a0c783e25e60bU, 0x3d961947bd2dcc6dU, 0xbe0c394c3de125eaU,
  0xbdaaf9613d99e071U, 0xbde8865b3def5d21U, 0xbcf633e83d38a6eeU, 0x3e1309aabdb8a6eeU,
  0x3d96750ebdbf7db4U, 0x3cdad8ce3daaf961U, 0x3e0711cf3e278dfeU, 0x3e0f9e473d81f0baU,
  0x3d5ad8cebdb53b8bU, 0xbda0b737bd81f0baU, 0xbd68865b3d99e071U, 0x3e0a7d32U,
  0xbadad8cebd9d4bd4U, 0xbdaaf9613dbf7db4U, 0x3ba4229abda4229aU, 0xbe31d027bdde4431U,
  0x3e46547b3dbc1251U, 0x3c7633e8be03a66cU, 0x3e20b737bd08c781U, 0xbdd40208be003b09U,
  0x3e449ec9bda4229aU, 0x3da78dfe3e055c1eU, 0x3db53b8bbdebf1beU, 0x3cf633e83e3385d9U,
  0x3e182abfbd7d0aaeU, 0x3e01f0babbdad8ceU, 0x3e182abf3db8a6eeU, 0x3e413366bde51af8U,
  0xbc3f7db43e24229aU, 0xbc7633e83d540208U, 0x3d7d0aaebdef5d21U, 0x3e38a6eebd9d4bd4U,
  0x3c08c7813e226ce9U, 0xbdaaf9613d16750eU, 0xbd99e071bdf633e8U, 0x3e08c781be0a7d32U,
  0xbce8865b3dc6547bU, 0xbd31d0273e2af961U, 0xbe59231cbe278dfeU, 0x3d1d4bd43d855c1eU,
  0x3da4229a3da78dfeU, 0x3e38a6ee3d81f0baU, 0xbdde4431bd31d027U, 0x3dd40208be524c56U,
  0x3d540208bd4d2b41U, 0xbe003b093d9309aaU, 0xbdbc12513d2af961U, 0xbdc9bfde3d5ad8ceU,
  0x3e278dfe3d31d027U, 0x3ccd2b413e3385d9U, 0x3d16750e3d540208U, 0x3c24229a3ba4229aU,
  0xbdf633e83e01f0baU, 0x3e19e0713d9d4bd4U, 0x3e1153f9bdebf1beU, 0x3df2c8853c5ad8ceU,
  0x3b5ad8ce3d68865bU, 0xbdf2c885bd01f0baU, 0x3dd40208bd7d0aaeU, 0xbdc2e917be0f9e47U,
  0xbadad8ce3e524c56U, 0x3d24229a3db1d027U, 0x3d38a6ee3d99e071U, 0xbcbf7db43d8f9e47U,
  0xbca4229abd0f9e47U, 0x3cf633e83e3dc803U, 0xbe055c1ebdebf1beU, 0x3e14bf5cbd540208U,
  0x3d4d2b413e14bf5cU, 0xbdf99f4b3e353b8bU, 0x3d8c32e43e2caf13U, 0xbd0f9e473c24229aU,
  0x3d08c7813e4b7590U, 0x3d3f7db4bd8c32e4U, 0x3e2943af3d99e071U, 0x3e4848f13e4f9169U,
  0x3d2ecb4b3e673cf1U, 0xbd2782d3bde1c697U, 0x3e11a969be1c961eU, 0x3e171fc43ae90f0fU,
  0xbdab270f3de56ad3U, 0xbe0e052dbe1c961eU, 0xbe2cf92dbe171fc4U, 0x3c690f0fbe154da6U,
  0x3dfb443c3e1c961eU, 0xbe3441a6bd690f0fU, 0x3d690f0f3e220c78U, 0xbd2ecb4b3e031878U,
  0x3d61c6973e2cf92dU, 0x3dbd5c3c3e2ecb4bU, 0x3d2ecb4b3dd335a6U, 0xbde56ad3bd031878U,
  0xbdab270f3da03a5aU, 0x3e1ac4003decb34bU, 0x3c91a9693e0a60f1U, 0xbe0c330fbe1c961eU,
  0xbcf7a0003d8e052dU, 0x3df057873dc4a4b5U, 0xbe2ecb4b3c2ecb4bU, 0xbdc10078bd831878U,
  0x3be90f0f3e0c330fU, 0xbd9c961e3e1ac400U, 0x3dde225a3d18f1e2U, 0xbdaecb4b3cf7a000U,
  0x3d203a5a3df3fbc4U, 0x3d031878bd18f1e2U, 0x3c690f0fbd0a60f1U, 0xbe3d5c3cbe0fd74bU,
  0x3df3fbc43d2782d3U, 0x3cbd5c3c3d61c697U, 0x3e2954f1bc690f0fU, 0x3de1c697bdd6d9e2U,
  0x3e3441a6bd98f1e2U, 0x3e0fd74b3e3f2e5aU, 0xbcaecb4b3e0fd74bU, 0xbdcbed2d3d86bcb5U,
  0xbae90f0f3e1ac400U, 0x3dc848f1bccbed2dU, 0xbe2782d33db9b800U, 0x3e0a60f1bd86bcb5U,
  0x3e5335a6bd3613c4U, 0xbd91a969be031878U, 0xbd9c961e3de1c697U, 0x3d18f1e2bda03a5aU,
  0x3be90f0f3da782d3U, 0x3da03a5a3d11a969U, 0xbc2ecb4bbd705787U, 0xbdfb443cbd4bed2dU,
  0x3dd335a63d3613c4U, 0xbd4bed2d3e11a969U, 0xbdf7a00000000000U, 0x3baecb4b3cda7e1eU,
  0x3c91a9693c11a969U, 0x3d18f1e23c91a969U, 0x3ce90f0f3de56ad3U, 0x3decb34b3ccbed2dU,
  0xbdda7e1ebe11a969U, 0xbe3613c4be326f87U, 0x3e031878bdc10078U, 0x3e1ac400bd2782d3U,
  0x3ccbed2d3e2cf92dU, 0xbc91a969bd5335a6U, 0xbd8a60f1be5507c4U, 0xbbe90f0fbe0e052dU,
  0x3e4dbf4b3e2b270fU, 0xbc11a9693e4dbf4bU, 0xbe39b800bccbed2dU, 0xbe1ac4003c11a969U,
  0xbcbd5c3cbd5a7e1eU, 0x3c11a969bce90f0fU, 0x3e13bdc83b0d2045U, 0x3c9ec44ebdb93a5bU,
  0x3cc20c5f3bd3b068U, 0x3da32d503d279652U, 0xbd95f2493e58196aU, 0xbc53b0683dc67561U,
  0xbe1a5b4bbd393a5bU, 0xbcc20c5f3db93a5bU, 0x3ce554703e6e2674U, 0x3d9ec44e3e1826caU,
  0xbd9ec44e3e306856U, 0x3d420c5f3df28f77U, 0x3cd3b0683e0d2045U, 0xbda32d50bd306856U,
  0xbc8d20453d9ec44eU, 0xbde0eb6ebe0aebc4U, 0xbd844e41bc306856U, 0x3e5c826c3dffca7dU,
  0x3de9bd723e2e33d5U, 0x3db068563e329cd7U, 0xbc76f879be29cad3U, 0x3e8c06043e1ec44eU,
  0x3ddc826c3e7d95fcU, 0x3e044e413bd3b068U, 0x3e0682c23dbda35dU, 0x3e2561d13df28f77U,
  0x3cb06856bc8d2045U, 0x3e5a4deb3e2e33d5U, 0xbd15f2493e0d2045U, 0xbdee26743dfb617bU,
  0x3e0aebc4bdc67561U, 0x3de9bd723dbda35dU, 0xbd420c5fbc8d2045U, 0x3e3da35d3e329cd7U,
  0x3c9ec44e3b0d2045U, 0xbe1826cabbd3b068U, 0x3d420c5f3d5c826cU, 0xbd6554703e705af6U,
  0x3e2bff543e4ade63U, 0x3d1ec44ebdbda35dU, 0x3e80ff7f3e1a5b4bU, 0xbd4ade63bd9a5b4bU,
  0x3e76f879bc8d2045U, 0x3c53b0683e2561d1U, 0xbdee26743dee2674U, 0x3e0682c23ce55470U,
  0xbd044e413c0d2045U, 0xbd0d2045bda32d50U, 0x3d844e413e0f54c6U, 0x3e631fef3d6e2674U,
  0x3e044e41bd9a5b4bU, 0x3de9bd72bd420c5fU, 0x3dcade63bd9ec44eU, 0x3e232d50bd918947U,
  0x3e4d12e43de0eb6eU, 0xbdf6f879bd88b743U, 0x3c9ec44e3e5a4debU, 0x3de0eb6e3e7b617bU,
  0x3e53b0683dd8196aU, 0xbc3068563d655470U, 0xbd844e41be0d2045U, 0x3dfb617b3e0f54c6U,
  0x3cc20c5f3db93a5bU, 0x3ddc826cbdc20c5fU, 0x3d7fca7d3e1826caU, 0x3e0219c03d95f249U,
  0x3e60eb6e3d6e2674U, 0xbcd3b068bcb06856U, 0x3e29cad33d306856U, 0xbb8d2045bdffca7dU,
  0x3e6bf1f33dabff54U, 0x3e393a5b3ddc826cU, 0x3e1ec44e3c76f879U, 0xbcc20c5fbd7fca7dU,
  0xbe1826ca3c0d2045U, 0x3dc0bc6f3da2c142U, 0xbdcd95ccbe0f7b36U, 0x3c9a3059bd5eb79dU,
  0x3c4d95ccbdb3e312U, 0x3d890e883d119f70U, 0xbe4504e43e04c614U, 0x3df421e2bdfcb2cbU,
  0xbd4d95cc3d9e78cdU, 0x3c090e88bdb82b87U, 0xbdab522abcdeb79dU, 0x3e0b32c23dfcb2cbU,
  0xbdb3e312bdd626b4U, 0xbc090e883e090e88U, 0xbe1c5493be292df0U, 0xbe0d56fcbd5626b4U,
  0x3e22c1423df86a56U, 0x3dbc73fb3dd626b4U, 0xbb890e883c890e88U, 0xbdf421e2be7ed705U,
  0x3c9a3059be04c614U, 0x3dda6f293e04c614U, 0x3e1c5493bda2c142U, 0xbe0d56fcbd919f70U,
  0x3d9a3059bde30011U, 0x3e51de403e65244bU, 0xbd6fd96ebd33e312U, 0x3d890e883e1a3059U,
  0xbe2b522abd890e88U, 0xbd890e883defd96eU, 0x3e13c3ab3d919f70U, 0x3e5626b4bd5626b4U,
  0xbd119f70bd9e78cdU, 0xbc090e88be2b522aU, 0x3e7a8e913e87fc6bU, 0xbdd626b4bc6fd96eU,
  0xbe47291ebcab522aU, 0x3dda6f293e3a4fc1U, 0x3e3c73fbbda2c142U, 0xbcbc73fbbe0b32c2U,
  0x3c2b522abdf86a56U, 0x3e31bed83e119f70U, 0xbdd626b43e3c73fbU, 0x3d95e7e53d22c142U,
  0xbd007da0bcefd96eU, 0xbc6fd96e3e06ea4eU, 0x3dd626b43d4d95ccU, 0x3e0f7b36be0d56fcU,
  0xbdc0bc6f3c9a3059U, 0x3e2f9a9e3e15e7e5U, 0x3e2d7664bcab522aU, 0xbd090e883ccd95ccU,
  0xbd5626b4be13c3abU, 0x3b890e883d007da0U, 0x3e007da03e209d07U, 0xbdcd95cc3e3e9835U,
  0xbe3a4fc13b890e88U, 0x3bcd95cc3dc94d58U, 0xbddeb79d3e5626b4U, 0x3e1a30593e51de40U,
  0x3d9a30593d807da0U, 0x3d919f703e13c3abU, 0x3d786a56bdeb90faU, 0x3dc0bc6fbdc0bc6fU,
  0x3dfcb2cb3d5626b4U, 0xbdbc73fb3dcd95ccU, 0x3e0d56fc3da2c142U, 0xbd33e312bccd95ccU,
  0xbb090e883dc504e4U, 0xbdbc73fbbe1e78cdU, 0x3d1a30593d5626b4U, 0xbd786a56U,
  0xbe209d07be119f70U, 0xbcefd96e3d786a56U, 0x3e4fba063d84c614U, 0x3d33e312bd919f70U,
  0x3d4bb7483d6dab29U, 0x3c6dab293db67edbU, 0xbc29c366bd21466eU, 0x3d9d07f23e3efbd3U,
  0xbd652e303e18c976U, 0x3c29c3663d7ea519U, 0x3d104c7dbddcb138U, 0x3e5872bcbe433a4fU,
  0x3d839109bdd43440U, 0xbd7ea519bc87cf85U, 0x3cedab29bde52e30U, 0x3db67edbbd904c7dU,
  0x3e32405fbd6dab29U, 0xbc29c3663e302120U, 0xbd3abd573d4bb748U, 0xbd5cb138be389e19U,
  0x3e543440bcbabd57U, 0xbda9c3663d07cf85U, 0x3c4bb7483b87cf85U, 0xbd7ea519bca9c366U,
  0xbe45598dbc98c976U, 0xbcedab293d433a4fU, 0x3e09eec33e039109U, 0x3dcbb7483e389e19U,
  0x3e07cf853d839109U, 0x3b87cf85be126bbbU, 0xbe0391093cbabd57U, 0xbd87cf85bb07cf85U,
  0xbcfea5193dcff5c4U, 0xbdc33a4f3dcbb748U, 0xbd104c7d3c87cf85U, 0x3e433a4f3d07cf85U,
  0x3e521502bcedab29U, 0x3d98c9763d104c7dU, 0xbe5cb1383c29c366U, 0x3cedab293d98c976U,
  0xbdfa669d3dae01e2U, 0x3e2584eabcdcb138U, 0xbcedab293cfea519U, 0xbe3abd57be302120U,
  0x3dfa669dbc87cf85U, 0x3dcff5c4bdedab29U, 0x3de52e303d07cf85U, 0xbde0efb43e3efbd3U,
  0xbe1ae8b43d9d07f2U, 0xbe0e2d3f3e09eec3U, 0x3e86bfe63e126bbbU, 0xbdb67edb3e45598dU,
  0xbdc778cbbcdcb138U, 0xbc4bb748be80622cU, 0x3e3abd573d98c976U, 0x3d9d07f23dae01e2U,
  0xbdcff5c43e696cadU, 0x3ddcb138bdae01e2U, 0x3de52e30bd07cf85U, 0x3de52e303dbefbd3U,
  0x3e674d6f3e18c976U, 0x3e1f27303d21466eU, 0xbdedab29be07cf85U, 0xbd3abd57bc07cf85U,
  0x3d839109bd98c976U, 0x3c07cf853d543440U, 0x3cedab29bd87cf85U, 0xbcbabd573dc33a4fU,
  0xbcdcb1383d904c7dU, 0xbe126bbbbe2be2a4U, 0x3de96cadbccbb748U, 0xbd29c3663e521502U,
  0xbdd872bcbd3abd57U, 0xbcedab29bc07cf85U, 0x3e7408e3be652e30U, 0xbd87cf853dc33a4fU,
  0x3d7628213d839109U, 0x3cdcb1383c87cf85U, 0x3d29c366be0c0e01U, 0xbe22c4a7be03d42aU,
  0x3c2c2f3cbe052c88U, 0x3c573b0bbdea1036U, 0xbdc1b524bda16c48U, 0xbddc9c853c01236dU,
  0xbd83d42abe241d05U, 0xbddc9c85be1d632dU, 0x3e1147db3df4d329U, 0xbdc465e03da41d05U,
  0x3e1147dbbe195a11U, 0x3da97e7f3cd73b0bU, 0xbdc465e0bdb44173U, 0x3e0935a4bd93f898U,
  0xbe07dd453dc465e0U, 0xbdc9c75a3cd73b0bU, 0x3cf783e6bdbf0467U, 0xbd7783e6bd83d42aU,
  0xbdff961dbe1c0aceU, 0x3e282621be282621U, 0x3cd73b0b3d7783e6U, 0xbd3190b6bdaedff9U,
  0xbddc9c853c16a954U, 0x3d26cdc2bd9ebb8bU, 0xbdaedff9bdb44173U, 0xbb2c2f3cbe12a039U,
  0x3b2c2f3c3e052c88U, 0xbb2c2f3cbd16a954U, 0xbe2ad6debe0d3ebfU, 0x3e1550f63e2013eaU,
  0x3dd48a4ebe195a11U, 0x3da41d05U, 0xbd51d9913d01236dU, 0x3cf783e6bdf4d329U,
  0xbda97e7f3dc1b524U, 0xbdc465e000000000U, 0xbdea10363e22c4a7U, 0xbaac2f3c3d1147dbU,
  0xbdff961dbd41b524U, 0xbd72226c3cecc0f2U, 0xbd3190b63e052c88U, 0xbdd1d9913c81236dU,
  0x3da6cdc23c6cc0f2U, 0x3dfce5603e297e7fU, 0x3c41b524be0935a4U, 0xbd96a9543e0be661U,
  0x3d61fdffbd8935a4U, 0x3c16a9543c2c2f3cU, 0x3c8be661bdc1b524U, 0xbdc1b524bdf783e6U,
  0xbdc1b524bda16c48U, 0xbd3c53aabd93f898U, 0x3d9147dbbce1fdffU, 0xbcf783e63e0be661U,
  0x3dfce5603cc1b524U, 0xbdb6f230bd675f79U, 0xbe12a0393d47169dU, 0x3e16a9543ce1fdffU,
  0xbd0684e73c41b524U, 0xbe0fef7cbc01236dU, 0xbcac2f3cbdd1d991U, 0x3ce1fdffbc2c2f3cU,
  0xbe1d632d3dbf0467U, 0x3dea10363d0684e7U, 0xbe0684e73ddf4d42U, 0x3db190b63d6cc0f2U,
  0x3c8be6613e241d05U, 0x3dac2f3cbdd48a4eU, 0xbb2c2f3cbc41b524U, 0x3cb6f2303d26cdc2U,
  0x3d01236dbd216c48U, 0xbd47169dbe241d05U, 0x3bd73b0bbdf4d329U, 0xbcac2f3c3e01236dU,
  0xbdc9c75a3cac2f3cU, 0xbd9147db3dfa34a3U, 0x3d1b72943d3dfdd1U, 0xbd818a263c4f4370U,
  0x3e10a710bd8e7e5dU, 0x3e39ac693e241563U, 0xbdfec2e43e018a26U, 0xbe2ee0e6bcbdfdd1U,
  0x3e5394d73cacb832U, 0x3e6fa5f93e4f4370U, 0x3e60890ebdacb832U, 0x3d8e7e5dbe3783b5U,
  0xbb8a2cf53d241563U, 0x3d3dfdd1bd241563U, 0x3de0890e3c8a2cf5U, 0xbd018a263cf1ceadU,
  0xbd4f43703e14f878U, 0xbdfec2e4bcf1ceadU, 0xbd2415633e17212cU, 0x3da41563be018a26U,
  0x3e33324ebdf62014U, 0x3e1949e03e55bd8bU, 0xbb8a2cf53e3bd51dU, 0xbe2cb8323d355b02U,
  0x3d12cfc43d018a26U, 0x3bcf43703d355b02U, 0x3dd7e63f3ce0890eU, 0xbdfec2e43db1099aU,
  0xbd0a2cf53e0e7e5dU, 0x3c4f43703e71ceadU, 0xbd2cb8323e5394d7U, 0xbdfa717c3cf1ceadU,
  0x3dfa717cbdd394d7U, 0xbda866cb3c71ceadU, 0x3e0a2cf5bdb55b02U, 0x3e3dfdd1bd0a2cf5U,
  0x3e0804413dd394d7U, 0xbc9b72943e3bd51dU, 0x3d692bddbdcf4370U, 0x3ded7d453d8e7e5dU,
  0x3e17212cbd92cfc4U, 0x3e60890e3db55b02U, 0x3d1b72943de0890eU, 0xbda866cbbb0a2cf5U,
  0xbdd7e63fbd46a0a0U, 0x3e3dfdd13e17212cU, 0x3ded7d453ccf4370U, 0xbc9b72943d241563U,
  0x3d692bdd3ccf4370U, 0x3d1b7294bda866cbU, 0x3dbdfdd13d8e7e5dU, 0xbe1fc3fb3e1d9b47U,
  0xbcbdfdd13d12cfc4U, 0xbd92cfc4bc0a2cf5U, 0x3dcaf2083d9fc3fbU, 0xbb0a2cf53e31099aU,
  0x3dbdfdd1bd7a717cU, 0xbd3dfdd1bdacb832U, 0xbd1b72943e12cfc4U, 0x3e5e605a3e89189bU,
  0xbe4d1abc3e17212cU, 0xbdf62014be2cb832U, 0x3c9b72943d8a2cf5U, 0x3b0a2cf5bda866cbU,
  0xbcbdfdd13e4d1abcU, 0xbda866cbbddc37a6U, 0x3d46a0a03c4f4370U, 0x3cbdfdd1bb0a2cf5U,
  0xbbcf4370bd818a26U, 0x3cf1cead3e1b7294U, 0x3d57e63fbdb1099aU, 0x3e2cb832be018a26U,
  0xbe0a2cf5bc4f4370U, 0x3d7a717c3d9b7294U, 0xbda415633c4f4370U, 0xbddc37a63b8a2cf5U,
  0xbd9fc3fb3c71ceadU, 0x3de7c4f53cb7426eU, 0x3e102e9ebd9f012bU, 0x3e205a203d8971d3U,
  0x3d476df0be14397fU, 0x3dc76df03e286fe1U, 0x3b815c123e1da835U, 0x3e02b5073cac7ac2U,
  0x3dfaa262bc8c23beU, 0x3e0d7cb33bac7ac2U, 0xbdb49083bd5cfd49U, 0xbe06bfe8bc6d28cbU,
  0xbd31de98bcb7426eU, 0x3d52359cbe118794U, 0xbded28cb3db9f459U, 0x3c015c12bd1c4f40U,
  0x3da46501bdac7ac2U, 0xbcac7ac2bdea76e0U, 0xbd86bfe8bd96eb6aU, 0xbce2611f3dc20a1aU,
  0xbce2611f3ced28cbU, 0x3dac7ac2bd86bfe8U, 0x3d815c12be118794U, 0xbde7c4f53dd79972U,
  0xbe02b5073d31de98U, 0xbaac7ac23da1b316U, 0x3dcf83b1bd7d544dU, 0xbdb7426ebddfaf34U,
  0x3df53e8cbcb7426eU, 0xbe06bfe83d9c4f40U, 0x3de5130a3d31de98U, 0x3dea76e03da1b316U,
  0xbd96eb6abe06bfe8U, 0x3e1da8353d1c4f40U, 0x3d918794bdf53e8cU, 0xbd2716ec3cc20a1aU,
  0xbda1b3163d476df0U, 0xbdb7426e3d0c23beU, 0x3d815c123d9c4f40U, 0xbe16eb6abdd79972U,
  0xbe0d7cb3bc015c12U, 0xbd840dfdbbac7ac2U, 0x3e21b316bce2611fU, 0xbe25bdf63e0ed5a9U,
  0x3cb7426ebd579972U, 0x3db9f4593c16eb6aU, 0x3da46501be1f012bU, 0xbe0c23be3cb7426eU,
  0xbd1c4f40bda9c8d7U, 0x3e0ed5a9bdfd544dU, 0x3e1f012bbd118794U, 0x3bac7ac2bd840dfdU,
  0xbdda4b5e3df28ca1U, 0xbe18445f3d6d28cbU, 0xbe06bfe83e230c0bU, 0xbdc20a1abddcfd49U,
  0xbd52359c3e199d55U, 0x3c96eb6abe02b507U, 0xbd840dfdbd67c4f5U, 0xbe0ed5a9bca1b316U,
  0xbd9c4f40be230c0bU, 0x3d4cd1c6bd918794U, 0x3c8c23bebdda4b5eU, 0xbb815c123ce2611fU,
  0xbe06bfe83d37426eU, 0xbe159274bd37426eU, 0xbd476df03dd2359cU, 0xbd7d544d3da46501U,
  0x3ce2611f3dfaa262U, 0x3e25bdf63df53e8cU, 0xbdb1de983cc20a1aU, 0x3d5cfd49bde2611fU,
  0xbe0566f2be18445fU, 0xbd999d55be2b21ccU, 0x3da9c8d7bdca1fdbU, 0xbd06bfe8bcc20a1aU,
  0x3d0b3ea93cafe35cU, 0xbda13b153d213b15U, 0x3e02157c3e03ea85U, 0x3dcd33ecbdf92cc3U,
  0x3e0969a03d1292cdU, 0xbd1292cd3d9d9103U, 0x3e338d6ebda13b15U, 0xbc9292cd3e03ea85U,
  0x3dfcd6d53d3e8ba4U, 0x3d99e6f13db73780U, 0x3e213b153dea847bU, 0x3d54880fbda13b15U,
  0x3d879497be31b865U, 0xbd5bdc333de33057U, 0xbdac394a3d2fe35cU, 0x3e1bbbfabd9292cdU,
  0x3d19e6f1bca13b15U, 0x3e288f38be0969a0U, 0x3dc989da3e4235b6U, 0x3cdbdc333c2fe35cU,
  0xbcafe35cbdf92cc3U, 0x3e0794973e24e526U, 0x3dc5dfc8bd54880fU, 0x3df92cc33dcd33ecU,
  0x3ddf8645bdf1d89fU, 0xbdea847b3b6a847bU, 0x3e10bdc43e05bf8eU, 0xbd71d89f3dc235b6U,
  0x3d2fe35c3bafe35cU, 0xbe45dfc83de6da69U, 0x3aea847b3d213b15U, 0xbd19e6f1bdc989daU,
  0xbdf582b1bddbdc33U, 0x3c9292cdbe26ba2fU, 0x3e23101ebcafe35cU, 0x3d03ea853cbe8ba4U,
  0xbd71d89f00000000U, 0xbde6da69be2c394aU, 0xbdd4880fbe0b3ea9U, 0x3dd4880f3e19e6f1U,
  0x3c4d33ec3d2fe35cU, 0xbcdbdc333d633057U, 0x3dcd33ecbd6a847bU, 0xbdafe35cbda88f38U,
  0xbe163cdf3dd4880fU, 0x3aea847bbe1811e8U, 0x3d83ea85bdbe8ba4U, 0x3e4060ad3d9d9103U,
  0x3e10bdc43d19e6f1U, 0x3d8794973dac394aU, 0xbca13b153dac394aU, 0xbd879497bd804073U,
  0xbd9d91033aea847bU, 0x3d45dfc8bdb38d6eU, 0x3dfcd6d53e390c89U, 0x3e2a64413d19e6f1U,
  0x3e19e6f1bda88f38U, 0x3d3e8ba4bd8ee8bbU, 0xbdea847b3da88f38U, 0x3d4d33ec3e288f38U,
  0x3d3e8ba4bd1292cdU, 0xbdd0ddfe3cbe8ba4U, 0x3d6330573bafe35cU, 0x3d792cc33e68af72U,
  0xbcea847b3d9292cdU, 0xbd83ea85bdf582b1U, 0xbdd83221bddbdc33U, 0x3c1292cdbda13b15U,
  0x3d9d9103bd879497U, 0xbd83ea85be0d13b2U, 0x3df1d89fbca13b15U, 0xbd83ea853d03ea85U,
  0xbda13b153e24e526U, 0x3bafe35cbd1292cdU, 0xbc83ea85be2e0e53U, 0x3e2d77d5bd9f82caU,
  0xbe118dbe3d1f82caU, 0x3caf76443e337323U, 0xbd277c873d2f7644U, 0x3e6948e0bd674a71U,
  0xbaff37a93d0f8f4fU, 0xbdd756f7bd97890cU, 0x3d5756f7be47637cU, 0xbd773dec3dff37a9U,
  0x3da77c873caf7644U, 0x3deb4750bd9f82caU, 0xbcbf69bfbd1f82caU, 0xbc1f82ca3def442eU,
  0xbaff37a9bd773decU, 0x3e19877cbdd756f7U, 0x3c1f82cabe0d90e0U, 0x3d0795923c3f69bfU,
  0x3bff37a93dd35a18U, 0x3d8b9270bc5f50b4U, 0x3dbb6ce03e4d5ecaU, 0xbd47637c3d4f5d39U,
  0xbbbf69bfbd938c2eU, 0x3d8b92703deb4750U, 0x3d8795923e6948e0U, 0xbd079592bdff37a9U,
  0xbdb770013ccf5d39U, 0xbd8795923c8f8f4fU, 0x3caf7644bb7f37a9U, 0x3e138c2e3e5756f7U,
  0x3cbf69bfU, 0xbd0f8f4f3dcb605bU, 0x3e17890c3d9b85ebU, 0xbe0795923dcb605bU,
  0x3e237fa83e45650dU, 0x3cdf50b43e43669dU, 0xbe158a9d3d17890cU, 0xbdbf69bf3b7f37a9U,
  0x3d5756f7be19877cU, 0x3e3f69bf3d0f8f4fU, 0x3dcb605b3d277c87U, 0xbd97890c3bff37a9U,
  0xbe3174b4bdb77001U, 0x3dd756f73d377001U, 0x3def442e3e2d77d5U, 0xbc5f50b43dcf5d39U,
  0xbe158a9dbe138c2eU, 0x3e7d393a3da77c87U, 0x3e5558873e555887U, 0xbdff37a9be634d93U,
  0x3e3b6ce0bddf50b4U, 0x3e3b6ce03daf7644U, 0x3de34d933e1d845aU, 0x3d879592be1b85ebU,
  0xbdab79663d2f7644U, 0x3daf7644bd773decU, 0x3dff37a93e4b605bU, 0x3c8f8f4fbdd35a18U,
  0x3c7f37a9bcdf50b4U, 0xbd3f69bfbd7f37a9U, 0xbdd756f73e4f5d39U, 0xbe2b7966be555887U,
  0x3d2f76443e158a9dU, 0x3e43669d3e41682eU, 0x3dd35a183d8398b3U, 0xbddf50b43e3f69bfU,
  0xbbff37a93c8f8f4fU, 0xbdcf5d39bd938c2eU, 0x3e3373233e1d845aU, 0x3e3f69bfbd8f8f4fU,
  0xbdc3669dbdf73decU, 0x3def442ebde34d93U, 0x3df73decbcaf7644U, 0x3d773dec3d3f69bfU,
  0x3d938c2e3dd35a18U, 0xbd3f69bfbe257e18U, 0x3df5ee163dfd9d87U, 0x3cd73053bd02a67cU,
  0xbda53bf73e3e3625U, 0x3dc3f9babdc3f9baU, 0x3d75ee163d8e2da5U, 0xbdd730533d668f35U,
  0xbd5edfc4bc573053U, 0x3e2727d33dc02201U, 0xbc19b4ce3dc02201U, 0x3df9c5cebd7d9d87U,
  0xbcc7d172be1ba0aaU, 0xbd2913af00000000U, 0x3db49ad83dc02201U, 0x3df5ee163c573053U,
  0xbd7d9d87bddedfc4U, 0x3e2727d33db0c320U, 0x3c8a55ec3df2165eU, 0xbdcf80e33e15dd15U,
  0xbe4f80e3bc573053U, 0x3e349ad83d75ee16U, 0x3e067e343d47d172U, 0xbe13f139bd75ee16U,
  0x3d5edfc4be45e596U, 0xbc75ee163d6e3ea5U, 0x3e60cba03e067e34U, 0x3dee3ea53e349ad8U,
  0x3e0a55ec3d02a67cU, 0xbbb872903dea66edU, 0x3d387290bc75ee16U, 0xbdd73053bd5edfc4U,
  0xbd4022013e591c2fU, 0xbdee3ea5bd99b4ceU, 0x3ca913afbe086a10U, 0x3e0c41c93e1d8c86U,
  0x3dcf80e3bc75ee16U, 0x3e30c3203df5ee16U, 0xbe02a67cbdf2165eU, 0xbd82a67c3d92055dU,
  0x3d12055d3cf5ee16U, 0x3e668f353cd73053U, 0xbdf5ee163e067e34U, 0x3cc7d172bdcf80e3U,
  0xbe049258bd8a55ecU, 0x3e74023a3d6e3ea5U, 0xbb75ee163bf5ee16U, 0xbe64a3583d387290U,
  0xbaf5ee16be101981U, 0x3d2913af3dee3ea5U, 0x3e1f7862bda53bf7U, 0xbdfd9d873dcba92aU,
  0xbd95dd153df2165eU, 0xbd30c320be0c41c9U, 0x3d19b4ce3ddedfc4U, 0xbc5730533e15dd15U,
  0xbcd73053bd9d8c86U, 0xbe702a81bda53bf7U, 0xbd19b4cebd30c320U, 0x3da53bf73db87290U,
  0xbd19b4ce3e02a67cU, 0xbde2b77cbdb49ad8U, 0xbdcf80e33cb87290U, 0x3e2ceb67be101981U,
  0xbcb872903e21643eU, 0xbc573053be086a10U, 0x3e0e2da5bd2913afU, 0xbd2913af3e15dd15U,
  0x3e2ceb673e1f7862U, 0xbd12055dbd402201U, 0x3e30c3203d867e34U, 0xbd668f35bd82a67cU,
  0xbd6e3ea5bd5edfc4U, 0xbd9d8c86bd7d9d87U, 0xbd8a55ecbd21643eU, 0x3e1f78623e21643eU,
  0x3e13f1393cd73053U, 0xbbf0b65ebc9671fbU, 0x3d7fc1c4bd076695U, 0xbc8766953c9671fbU,
  0xbe1c1641be03a3bbU, 0x3e1df7ae3d783c11U, 0x3e239bf4bdbc0e79U, 0x3decf385bd1df7aeU,
  0x3de930ab3d7fc1c4U, 0xbe03a3bb3df47937U, 0x3e61aaf83e6ed4f1U, 0x3af0b65e3c876695U,
  0x3d7fc1c4bd8eec48U, 0xbc70b65ebe1671fbU, 0x3d529f923ce1aaf8U, 0x3d83a3bb3e29403aU,
  0x3dd29f923cc3942cU, 0xbdfbfeeabcb488c6U, 0x3e058528bdbfd153U, 0x3bf0b65ebd9df7aeU,
  0x3d43942c3e239bf4U, 0x3e12af21bd6930abU, 0x3e058528bc529f92U, 0xbdffc1c43e32a75aU,
  0x3e2b21a7bd8eec48U, 0x3dd29f923d92af21U, 0x3b70b65e3df83c11U, 0x3dad03143c1671fbU,
  0x3e094802bc3488c6U, 0x3d1df7aebda1ba87U, 0x3b70b65ebd70b65eU, 0x3c3488c6bda57d61U,
  0xbcc3942c3e01c24fU, 0xbd076695bde56dd2U, 0x3e12af21bd1671fbU, 0x3d0eec483e457599U,
  0x3d1df7ae3e3defe6U, 0x3bb488c6be674f3eU, 0x3e03a3bbbe21ba87U, 0x3e2ee4803e3c0e79U,
  0x3ce1aaf8be3488c6U, 0xbe0b296ebb70b65eU, 0x3df83c113dd29f92U, 0x3e3488c6bda1ba87U,
  0xbd92af21bd076695U, 0xbcffc1c43e01c24fU, 0xbd9671fbbcffc1c4U, 0xbaf0b65e3cffc1c4U,
  0x3bb488c63e3c0e79U, 0x3d257d61bd4b19dfU, 0xbe12af213d257d61U, 0xbdf83c11bdcedcb9U,
  0x3e3a2d0dbc529f92U, 0xbe1df7ae3dd29f92U, 0xbdbfd1533d9a34d4U, 0xbd529f923e529f92U,
  0xbe257d613dda2545U, 0x3dfbfeea3d3488c6U, 0xbcc3942c3c529f92U, 0x3d3488c6bdd6626cU,
  0xbcffc1c4baf0b65eU, 0xbe0d0adb3c9671fbU, 0xbcb488c6bdbc0e79U, 0xbdb488c6bdfbfeeaU,
  0xbc70b65ebd9df7aeU, 0xbd9a34d4bd4b19dfU, 0x3d9671fbbde1aaf8U, 0xbc529f92bd70b65eU,
  0x3d0eec483e1a34d4U, 0xbdfbfeeabdc75706U, 0xbdd6626cbc529f92U, 0x3e29403a3cf0b65eU,
  0x3de1aaf83db0c5edU, 0xbce1aaf8U, 0xbd5a25453cc3942cU, 0x3e1c16413e1df7aeU,
  0x3d60ff943db25a34U, 0x3e21e39a3de67c73U, 0xbdaa1ee7bd142b6eU, 0xbc71762fbdc84dadU,
  0x3dcb0c1cbd71762fU, 0xbe067343bc71762fU, 0x3e05140bbbaf9bc5U, 0x3e02559c3d7c6febU,
  0xbe21e39abd916cffU, 0xbdebf951bd867343U, 0xbde67c73be067343U, 0xbc99a84cbc03b4d4U,
  0xbe1b0784bc5b82b6U, 0x3c83b4d4be2cdd56U, 0x3c5b82b6bd96e9ddU, 0x3e2601403d916cffU,
  0xbe0eae90bd8eae90U, 0x3e0a90e9be1b0784U, 0x3e0931b23c5b82b6U, 0xbdb518a33c71762fU,
  0x3d5088fabdf9b17cU, 0x3baf9bc5bd9f252bU, 0x3d96e9ddbd5088faU, 0xbcfc6feb3df1762fU,
  0xbd8eae903dc84dadU, 0xbbaf9bc53d3a9581U, 0xbda760783e00f665U, 0x3d71762f3daf9bc5U,
  0xbd9c66bb3d142b6eU, 0xbe0eae90bd7c6febU, 0xbd60ff943e158aa6U, 0x3e0bf021bde0ff94U,
  0x3c71762fbdf4349eU, 0xbe142b6e3e1b0784U, 0xbdf1762fU, 0xbd19a84c3daa1ee7U,
  0x3d71762f3d5088faU, 0xbdaa1ee7bcdb82b6U, 0x3d83b4d4be208462U, 0x3e0931b2be184915U,
  0xbc8eae90bdebf951U, 0xbe1b0784bdd605d8U, 0x3c5b82b63cdb82b6U, 0x3c99a84cbe2e3c8dU,
  0xbe02559cbd83b4d4U, 0x3d40125fbdc0125fU, 0x3b2f9bc53e19a84cU, 0x3d942b6ebdf4349eU,
  0xbd6bf951bc458f3eU, 0xbe158aa63df9b17cU, 0x3aaf9bc5be03b4d4U, 0xbd80f665bd2f9bc5U,
  0x3da760783c19a84cU, 0xbd3a9581bdba9581U, 0x3df1762fbe2342d1U, 0x3e16e9dd3d1f252bU,
  0x3aaf9bc5bdaa1ee7U, 0xbdd605d83cfc6febU, 0xbc99a84c3db7d712U, 0xbdc58f3e3e208462U,
  0x3d71762fbcba9581U, 0x3e158aa6be2cdd56U, 0x3da4a2093e100dc8U, 0x3e184915be00f665U,
  0x3bdb82b63d1f252bU, 0x3d0931b2be0931b2U, 0xbdf1762fbdf9b17cU, 0x3db518a33e00f665U,
  0x3d667c733e07d27aU, 0xbd4b0c1cbd9f252bU, 0xbe2a1ee73c458f3eU, 0x3dbd53f0bdc2d0cfU,
  0xbdf9b17c3d8bf021U, 0xbdc84dad3c71762fU, 0x3de3be03bd80f665U, 0xbd99c1f000000000U,
  0xbe0ca1c6be214209U, 0xbd430276be1f6203U, 0xbd6102d73da14209U, 0xbe28c221be08e1baU,
  0xbe0ca1c6be1f6203U, 0x3e0521aebc1601e4U, 0x3e1241d8bdff0337U, 0x3e2502153e1d81fdU,
  0xbd6102d73e0ac1c0U, 0x3da14209bde102d7U, 0xbe1241d8bd8341a8U, 0x3e2c822d3e0ca1c6U,
  0xbd9d81fd3e1421deU, 0x3dc6c282bd9601e4U, 0xbe08e1babe0ca1c6U, 0x3d5202a6bddd42caU,
  0x3da8c221bd7f0337U, 0xbd8ac1c03d8341a8U, 0x3df7831f3d6102d7U, 0x3dd202a63d8ac1c0U,
  0xbe0ac1c0bdca828eU, 0x3c9601e43e2c822dU, 0x3e08e1babda50215U, 0x3bf003073e32223fU,
  0x3df3c3133bb40245U, 0x3c3402453d8ac1c0U, 0x3c9601e4bd8701b4U, 0x3af003073bf00307U,
  0x3dc30276bc1601e4U, 0x3da8c221bc340245U, 0x3e5d42cabe1241d8U, 0x3e0341a83e28c221U,
  0xbcff0337be0701b4U, 0x3e1421de3db04239U, 0x3dca828e3e1601e4U, 0x3af003073df00307U,
  0x3dff03373e412270U, 0x3cc30276bd8e81ccU, 0xbde882ef3dd202a6U, 0x3af003073ce102d7U,
  0x3e0521ae3e340245U, 0x3d4a828e3d1601e4U, 0x3d5202a63e1601e4U, 0xbe3d62643d9601e4U,
  0xbd430276bd9601e4U, 0x3e37c2513dbf426aU, 0x3e1d81fd3e340245U, 0xbb700307be5022a0U,
  0x3e0341a8bcd202a6U, 0xbd6882efbe08e1baU, 0x3d8341a83e5b62c4U, 0xbdb7c2513d99c1f0U,
  0xbd3402453de882efU, 0xbd8ac1c03cb40245U, 0x3e3f426abd0701b4U, 0x3d99c1f03da8c221U,
  0xbc340245be08e1baU, 0xbdc6c282be17e1eaU, 0x3d0701b43ca50215U, 0xbc5202a63dbf426aU,
  0xbe2c822d3e2e6233U, 0x3d430276be1421deU, 0xbbb40245be5022a0U, 0xbc8701b4be6e2301U,
  0xbd7f03373dac822dU, 0x3e1601e43df3c313U, 0x3cff0337bd5982beU, 0xbc1601e43d4a828eU,
  0x3d250215bcb40245U, 0xbd6882efbdbb825dU, 0x3d4302763dff0337U, 0xbe214209be23220fU,
  0xbdb40245be250215U, 0x3dd5c2b2be1421deU, 0xbded2c493e481d5eU, 0xbd481d5e3e40b3fbU,
  0x3bed2c49be091d9aU, 0x3d97f05fbb6d2c49U, 0x3da6c323bdf495abU, 0xbe01b4383e6b51f0U,
  0x3d143bae3cc0b3fbU, 0xbd1ba510bcde5984U, 0x3e038e903c943baeU, 0x3d97f05f3df0e0faU,
  0xbdf0e0fa3dae2c86U, 0xbd4f86c03c4f86c0U, 0x3d230e723d7495abU, 0x3e0cd24b3df495abU,
  0x3e01b4383e3595e8U, 0xbe161606baed2c49U, 0x3dde5984bdffb3bfU, 0x3e3b24f23e4dac67U,
  0x3d40b3fb3e377040U, 0xbd40b3fb3e01b438U, 0xbd2a77d4bccf86c0U, 0x3e5e5984bccf86c0U,
  0x3c4f86c0bd4f86c0U, 0x3d4f86c03c943baeU, 0x3e2c522dbe21341aU, 0x3e428e543e26c323U,
  0xbc31e137bde5c2e7U, 0x3da6c3233d943baeU, 0x3ccf86c0bd143baeU, 0x3e4bd20f3db94a99U,
  0xbdbcff4abddaa4d3U, 0xbe074342be161606U, 0xbd1ba510bc31e137U, 0x3db94a993cde5984U,
  0xbd7495ab3d481d5eU, 0x3ddaa4d3bdde5984U, 0x3c6d2c493aed2c49U, 0xbd4f86c0bd65c2e7U,
  0xbd40b3fb3e21341aU, 0xbe31e1373c943baeU, 0x3d9ba5103d40b3fbU, 0x3e143baebbb1e137U,
  0xbdcf86c03cde5984U, 0xbdc0b3fbbdbcff4aU, 0x3e0eaca4bd56f022U, 0x3dfbff0e3de5c2e7U,
  0x3bb1e1373e33bb8fU, 0xbdfbff0e3d8cd24bU, 0xbdfbff0ebdb595e8U, 0xbdc81d5e3d31e137U,
  0x3e0568e93e24e8cbU, 0xbd6d2c493e394a99U, 0xbda30e723e126155U, 0xbdb1e137be126155U,
  0xbdbcff4abd65c2e7U, 0x3e0af7f33bed2c49U, 0x3d2a77d4bdc0b3fbU, 0xbd8568e93d6d2c49U,
  0x3d891d9abd8cd24bU, 0xbdcbd20f3d0cd24bU, 0xbddaa4d3bd481d5eU, 0xbc6d2c49bd0568e9U,
  0x3e4643053c943baeU, 0xbd97f05f3e3595e8U, 0xbd65c2e7bd394a99U, 0x3e3006debd943baeU,
  0x3c6d2c493e1086fcU, 0xbc4f86c03d40b3fbU, 0x3e377040bda6c323U, 0x3d0568e93d65c2e7U,
  0xbe1f59c13e230e72U, 0xbb6d2c49be161606U, 0xbd230e72be0cd24bU, 0xbded2c493bb1e137U,
  0xbc143baebd97f05fU, 0x3e12a75f3df9dac8U, 0x3dc389d43e3e1b55U, 0x3deefdcabd8999e1U,
  0x3de7bfccbe07ca62U, 0x3c10d7e0be0999e1U, 0xbe1bb4ddbc90d7e0U, 0xbd6efdcabdeb5ecbU,
  0xbdaa30da3de7bfccU, 0x3deefdca3db50dd7U, 0xbc9f53dc3e042b62U, 0x3e0f08603e008c63U,
  0x3dc389d43dd5a4d0U, 0xbc4ac7d23e10d7e0U, 0x3ce7bfcc3e2a30daU, 0xbde7bfcc3d5205d1U,
  0xbc4ac7d23d9bb4ddU, 0x3d6081cebdeb5ecbU, 0x3e16465e3da691dbU, 0x3e042b62U,
  0x3dd5a4d0be55a4d0U, 0x3e5036513c825be3U, 0xbdd205d13e05fae2U, 0x3d1f53dc3e503651U,
  0x3d2691dbbe1bb4ddU, 0x3d763bc93d9bb4ddU, 0x3e2a30dabd6081ceU, 0x3d0999e13d7d79c7U,
  0xbce7bfccbd8d38e0U, 0xbc825be33d350dd7U, 0xbcd943cfbde420cdU, 0x3e0d38e0bdf9dac8U,
  0x3c9f53dc3d2691dbU, 0xbd9bb4dd3e19e55dU, 0xbdd943cf3badcfd9U, 0x3d825be3be042b62U,
  0xbd5943cf3db50dd7U, 0x3e5205d13e2dcfd9U, 0xbd2691db3e5943cfU, 0xbdc728d33e0b6961U,
  0xbde081ce3d8999e1U, 0xbd763bc93d2dcfd9U, 0x3d67bfcc3e025be3U, 0xbe1f53dcbd9bb4ddU,
  0xbde7bfccbdf9dac8U, 0x3e1815debd9f53dcU, 0xbdadcfd93deefdcaU, 0xbd6081ce3e65f04cU,
  0xbe22f2dbbdcac7d2U, 0xbe2c00593de420cdU, 0x3d8d38e0bcadcfd9U, 0x3e21235c3ccac7d2U,
  0x3dd943cf3c825be3U, 0x3dfd79c73e1d845dU, 0xbc825be3be10d7e0U, 0xbc2dcfd93d67bfccU,
  0x3e1d845d3dc728d3U, 0xbc825be3bda2f2dbU, 0x3e0d38e0be2691dbU, 0xbd7d79c7bd2dcfd9U,
  0xbe1bb4dd3db16ed8U, 0x3ae7bfcc3db50dd7U, 0x3e22f2dbU, 0x3d90d7e0bdfd79c7U,
  0xbdeefdca3deb5ecbU, 0x3d9476dfbce7bfccU, 0x3d4389d43e2a30daU, 0xbdb8acd7bd7d79c7U,
  0x3d9f53dcbdaa30daU, 0xbde081ce3dd943cfU, 0x3be7bfcc3d4389d4U, 0xbdcac7d23d5943cfU,
  0xbdaa30da3dcac7d2U, 0xbe2691dbbd2691dbU, 0x3e008c63U, 0x3ddce2cebd6efdcaU,
  0xbe106e5d3d425fe3U, 0xbe19e13fbddaabe0U, 0xbbacc703bdc25fe3U, 0x3c0195423e132179U,
  0x3d06fb7abced91a4U, 0xbdbcf9ab3d019542U, 0x3aacc703bded91a4U, 0xbdbcf9ab3dcfdf70U,
  0x3e0dbb403da4adafU, 0x3d972e23bdca7938U, 0xbe11c7ebbe0b0824U, 0x3d9c945bbdfdc44cU,
  0x3e147b07bdf2f7dcU, 0x3e2b6d753e1f4777U, 0x3e1887b13e003bb4U, 0xbc425fe3be0c61b2U,
  0xbd62c534be003bb4U, 0x3dfb11303c819542U, 0xbe21fa93bd5d5efcU, 0xbe0855083d9f4777U,
  0xbb819542bd52928cU, 0xbe05a1ec3d7dc44cU, 0x3d11c7ebbe24adafU, 0xbd682b6cbdf044c0U,
  0xbd99e13fbe1f4777U, 0x3c425fe3bd682b6cU, 0xbdfb11303d8f14ceU, 0xbb819542bdba468fU,
  0xbd7dc44cbd4d2c54U, 0x3df5aaf83c425fe3U, 0x3e1b3acdbe1f4777U, 0x3d89ae963d5d5efcU,
  0xbbacc703bb819542U, 0xbde82b6c3cacc703U, 0xbd3cf9abbe0f14ceU, 0x3d947b07bd3cf9abU,
  0xbe02eed0be172e23U, 0xbe0b0824be172e23U, 0x3cd7f8c43c425fe3U, 0xbdaf7a1f3ddd5efcU,
  0xbda1fa933c2cc703U, 0xbdfb11303d172e23U, 0xbe085508bc172e23U, 0xbe26073d3e21fa93U,
  0xbd84485ebdbfacc7U, 0xbcb793733e2b6d75U, 0x3e2760cbbdaa13e7U, 0xbd47c61b3ca1fa93U,
  0x3e1dede93e28ba59U, 0xbd5d5efc3bd7f8c4U, 0xbe106e5d3e09ae96U, 0x3db22d3b3d785e14U,
  0x3d5d5efc3cc25fe3U, 0x3cb79373be235421U, 0xbd2cc7033e132179U, 0x3c172e233cacc703U,
  0x3e106e5d3e0c61b2U, 0xbe05a1ec3c819542U, 0xbe0f14ce3cd7f8c4U, 0xbbd7f8c4bc8c61b2U,
  0x3de57850be147b07U, 0xbe2a13e7be02eed0U, 0x3d019542baacc703U, 0x3d62c5343e0c61b2U,
  0x3e2a13e73deade88U, 0xbc0195423d89ae96U, 0x3bd7f8c4bdaa13e7U, 0xbda4adafbd91c7ebU,
  0xbc172e23bcc25fe3U, 0xbd0195423dd545a8U, 0x3d52928c3daa13e7U, 0x3d11c7ebbd0c61b2U,
  0xbd86fb7a3da4adafU, 0x3c819542bd322d3bU, 0xbc972e23bd7dc44cU, 0x3e37a15a3e333499U,
  0x3ce617493e0fce8eU, 0xbc546444bdb9d7bbU, 0x3dcff7823d30fe38U, 0x3e333499bd892b6cU,
  0x3e684daa3c30fe38U, 0x3e1671b0bd84beaaU, 0x3e143b4fbe028849U, 0x3d1f4b333e1f4b33U,
  0x3e1f4b33bce61749U, 0x3d0d982d3dcff782U, 0x3d4b8ac1bd661749U, 0x3c30fe383d8d982dU,
  0x3deef0ccbc30fe38U, 0xbd1f4b333c546444U, 0xbde1aa883d546444U, 0x3e4ff782bd5d3dc6U,
  0x3e42b13e3de1aa88U, 0xbcb0fe383e37a15aU, 0xbd0d982d3e356afaU, 0x3e356afabd9f4b33U,
  0x3b0d982dbbd46444U, 0x3b0d982dbe04beaaU, 0x3d84beaa3d1671b0U, 0x3deef0cc3e028849U,
  0xbe0288493c8d982dU, 0xbc9f4b333e4b8ac1U, 0xbcc2b13ebd1671b0U, 0x3e092b6c3e77ca4fU,
  0xbdeef0ccbd5d3dc6U, 0xbd77ca4f3d546444U, 0x3e4b8ac1bdd8d105U, 0x3c30fe383e4b8ac1U,
  0x3e1ade7100000000U, 0xbdfc3710bdf7ca4fU, 0xbe18a811be06f50bU, 0x3dea840b3e1671b0U,
  0xbd9671b03e569aa4U, 0x3e2ec7d83e44e79fU, 0xbd4b8ac1bde1aa88U, 0x3e1d14d2bc0d982dU,
  0xbd04beaa3cd46444U, 0x3e42b13e3e3c0e1cU, 0xbe44e79fbd8d982dU, 0xbe2c91773df7ca4fU,
  0xbdfc3710bde1aa88U, 0x3e61aa883e3c0e1cU, 0xbdc71dffbc0d982dU, 0xbdac9177bde61749U,
  0x3e8c7cfdbe7593eeU, 0x3e8051e9bd8d982dU, 0x3db56afa3d546444U, 0xbd9671b03d1f4b33U,
  0xbd8d982d3cc2b13eU, 0xbd39d7bbbdd46444U, 0xbdf7ca4f3c9f4b33U, 0x3d77ca4f3e0051e9U,
  0xbd9204ee3e522de3U, 0xbbd46444bd6ef0ccU, 0x3e2a5b16bdd8d105U, 0x3bd46444bdb9d7bbU,
  0x3e407add3e407addU, 0x3db0fe383e06f50bU, 0xbd6617493e30fe38U, 0x3c8d982d3e092b6cU,
  0xbe23b7f4bc30fe38U, 0x3e61aa883dc71dffU, 0x3dc71dff3c546444U, 0xbe2a5b163dd46444U,
  0xbe2824b5be2a5b16U, 0x3e42b13ebd6ef0ccU, 0x3d42b13ebcf7ca4fU, 0xbcc2b13e3d9f4b33U,
  0x3d6617493e1ade71U, 0x3dcff782be0b61ccU, 0xbdaf9d503e25a2ebU, 0xbe3b9695bd1fa648U,
  0x3c1fa6483d0faf41U, 0xbd97aac53e2d9e6fU, 0xbe01b71b3d9fa648U, 0xbe3d95763df3772fU,
  0x3d1fa648bd5f8266U, 0x3e1fa6483e2b9f8eU, 0x3dc392193cdf8266U, 0x3dab9f8e3d0faf41U,
  0x3e13ad03bd8bb17fU, 0xbda3a40a3d7f7074U, 0x3c7f7074bd478fdbU, 0x3e339b123bff7074U,
  0x3d27a1ccbaff7074U, 0xbe07b3be3dbf9457U, 0x3ccf8b5ebe2d9e6fU, 0x3cdf82663e05b4ddU,
  0xbcff70743def796dU, 0xbdaf9d503e2b9f8eU, 0x3dff7074bdd786e2U, 0xbcff7074be29a0adU,
  0x3dab9f8ebe01b71bU, 0x3c5f82663dbb9695U, 0x3dc39219be09b29fU, 0xbe339b123cef796dU,
  0x3e17aac5bd6f796dU, 0x3d5f82663cef796dU, 0xbe23a40abe15abe4U, 0x3e01b71bbcdf8266U,
  0xbdb798d3U, 0x3d93ad03be05b4ddU, 0xbd478fdbbdf3772fU, 0x3db39b12bdcb8d9cU,
  0x3df774f0be11ae22U, 0x3e558801bc5f8266U, 0x3d677de9be339b12U, 0x3c1fa6483d677de9U,
  0xbe2f9d50bddf8266U, 0x3e01b71b3e7d7193U, 0x3cff70743e0faf41U, 0x3db798d33d9fa648U,
  0x3bbf94573c7f7074U, 0x3c7f70743de38027U, 0x3e6380273e75760fU, 0x3cff70743cef796dU,
  0xbdcf8b5e3d07b3beU, 0x3c5f82663d677de9U, 0xbd3798d33c5f8266U, 0xbe3997b43dd786e2U,
  0xbe71784ebcff7074U, 0xbddf8266be23a40aU, 0x3d4f8b5e3da3a40aU, 0xbc3f9457bcbf9457U,
  0x3d5786e2bd5f8266U, 0xbd93ad03bcef796dU, 0x3d3798d33dff7074U, 0xbdd389203e25a2ebU,
  0x3dd786e23ccf8b5eU, 0xbd3798d33dbf9457U, 0x3e0db0603def796dU, 0x3c1fa6483d9ba887U,
  0xbdf3772fbcaf9d50U, 0x3da3a40abdeb7babU, 0x3ccf8b5e3e19a9a6U, 0x3d8bb17fbd17aac5U,
  0xbc7f70743d677de9U, 0x3dc78fdb3d5786e2U, 0x3d3798d33d83b5fcU, 0xbda7a1cc3bff7074U,
  0x3d4f8b5e3e0faf41U, 0xbd8bb17fbd93ad03U, 0x3e27a1cc3e17aac5U, 0x3e3997b43e75760fU,
  0xbcaf9d503de38027U, 0xbd8988a7be0f99faU, 0xbd72b4ea3d4a416eU, 0x3d4a416e3e4a416eU,
  0x3d95ab4c3c21cdf2U, 0x3e21cdf23dd25887U, 0x3e2bead13e0d9433U, 0xbd21cdf2be13a586U,
  0x3d422a55bc81718eU, 0xbd3a133cU, 0x3dd66413bdd66413U, 0x3c6286b83dde7b2cU,
  0x3db607b03c01718eU, 0xbd9dc2653e422a55U, 0x3ce286b8bd21cdf2U, 0xbe3401e93d4a416eU,
  0xbd6286b8bd8d9433U, 0x3deea95e3ce286b8U, 0xbd21cdf23d422a55U, 0xbde69245bdc22a55U,
  0x3cf2b4ea3dce4cfaU, 0x3d19b6d93e01718eU, 0xbda5d97e3e6286b8U, 0x3cf2b4eabca1cdf2U,
  0xbe56641300000000U, 0x3d9dc2653d525887U, 0xbde692453e525887U, 0x3dea9dd13dd25887U,
  0x3cd258873dd66413U, 0x3bc22a553bc22a55U, 0xbdca416ebc01718eU, 0xbdea9dd1bdce4cfaU,
  0x3d919fc03d19b6d9U, 0x3dca416ebdb1fc23U, 0xbe19b6d9bd4a416eU, 0x3cf2b4eabd4a416eU,
  0x3d72b4ea3dfed790U, 0xbda5d97e3e27df44U, 0xbd6a9dd13e0988a7U, 0xbd21cdf23e0d9433U,
  0xbdfed790bdde7b2cU, 0x3e6ca398bdadf097U, 0x3e806eab3e525887U, 0xbe0b8e6d3da1cdf2U,
  0xbe5664133ca1cdf2U, 0x3d29e50abdd66413U, 0x3e545e4d3da5d97eU, 0x3d422a553e0988a7U,
  0x3dd25887bdc22a55U, 0xbcc22a55bcb1fc23U, 0x3df2b4eabd6a9dd1U, 0x3dd664133df2b4eaU,
  0xbd72b4ea3c01718eU, 0xbe2df0973d31fc23U, 0x3d8988a7bdadf097U, 0x3d31fc23bdda6fa0U,
  0x3e483ba83cd25887U, 0x3e13a586bd857d1aU, 0xbde692453db1fc23U, 0xbdca416e3d19b6d9U,
  0xbdf2b4eabe0988a7U, 0xbcc22a553e6286b8U, 0xbe380d76bda5d97eU, 0x3dc635e13d99b6d9U,
  0xbd81718ebd119fc0U, 0x3e3a133cbe057d1aU, 0x3e1bbc9f3e1dc265U, 0x3e17b1123d919fc0U,
  0x3dfed7903db1fc23U, 0xbe119fc03d81718eU, 0xbd0988a7bd3a133cU, 0x3d29e50a3de286b8U,
  0x3da9e50a3d9dc265U, 0xbd29e50abda9e50aU, 0x3dfed790be2ff65dU, 0x3da5d97e3e483ba8U,
  0x3cc80f49bded9227U, 0x3e8454c73de53c2eU, 0x3d69672a3e13f5f9U, 0xbe26b768be0db57eU,
  0x3d0db57ebe055f86U, 0x3d855f86be1e616fU, 0x3daf0d603dfa131bU, 0x3dcc3a45bc480f49U,
  0xbe0ba000bd055f86U, 0xbd71bd23bd506541U, 0x3ca6b768bdbfb951U, 0xbc69672abde9672aU,
  0x3d055f86bc960b77U, 0xbdd065413e2076edU, 0x3e098a823ddce636U, 0x3e4c3a453e26b768U,
  0xbe1c4bf13de53c2eU, 0xbca6b768bce9672aU, 0x3d91e07b3e2076edU, 0xbca6b768bd376358U,
  0x3de53c2e3dc80f49U, 0x3d480f493e1820f5U, 0x3d8db57e3d71bd23U, 0xbe1a36733da6b768U,
  0x3d8db57ebdcc3a45U, 0x3c055f863cfa131bU, 0xbc26b7683d71bd23U, 0xbdaf0d60bd160b77U,
  0xbbc80f493cfa131bU, 0x3e055f863d611132U, 0xbd9e616f3e354ddaU, 0xbe098a823e098a82U,
  0x3e0775043d58bb3aU, 0xbb855f863cfa131bU, 0xbdc80f49bdb3385cU, 0x3e0db57ebddce636U,
  0xbe2f0d60be1a3673U, 0x3e2076edbd9a3673U, 0x3cc80f493e480f49U, 0xbc26b768bcb76358U,
  0xbd58bb3a3daf0d60U, 0xbdd8bb3a3e077504U, 0x3ca6b7683e73d2a1U, 0xbd055f86bd611132U,
  0x3cc80f49be376358U, 0x3dfa131bbd3fb951U, 0xbdc3e44dbda28c6bU, 0xbdbfb951bc855f86U,
  0x3e3763583e13f5f9U, 0xbcfa131b3d960b77U, 0x3e3122de3d26b768U, 0x3cb763583dbfb951U,
  0xbd3763583e055f86U, 0x3e160b77bdaf0d60U, 0xbda28c6bbd506541U, 0xbd58bb3a3e3b8e54U,
  0x3db763583d480f49U, 0x3ded9227bd9e616fU, 0xbdd06541bc480f49U, 0xbd91e07bbe01348aU,
  0x3e1820f53e2076edU, 0x3cfa131bbd898a82U, 0x3e54903e3daae264U, 0x3d81348abe2cf7e2U,
  0x3d960b773d480f49U, 0xbe01348a3d7a131bU, 0x3b855f863e3b8e54U, 0xbd6111323d2f0d60U,
  0xbe41cecfbe228c6bU, 0x3e098a823d3fb951U, 0x3e24a1e93cc80f49U, 0x3e527abf3d2f0d60U,
  0xbd1e616fbd9e616fU, 0x3c480f49be0db57eU, 0xbdaf0d60bda6b768U, 0xbe1283153ae78673U,
  0xbdeb248d3d590e0cU, 0x3db4e10a3e19bf48U, 0x3be78673bd023ba1U, 0xbe1b8e55be2a06bcU,
  0x3cada4d6be1f2c6fU, 0xbd8d15ee3e5e7b33U, 0xbd6786733e63e859U, 0x3d8d15eebdfd3b0eU,
  0x3d90b408bd2668a3U, 0xbd945222bdca95a5U, 0xbd85d9ba3de3e859U, 0x3c2da4d6be05d9baU,
  0x3e5cac263cada4d6U, 0x3e22ca893e2837b0U, 0xbc10b4083db4e10aU, 0x3daa06bcbce78673U,
  0xbd8d15eebd1f2c6fU, 0xbd7d3b0e3cf5fedaU, 0x3e0b46e13e1f2c6fU, 0x3e1452223cd90e0cU,
  0xbdb4e10abe2da4d6U, 0x3e45287e3c9f2c6fU, 0xbcada4d6bdd1d1d8U, 0xbdc359713bada4d6U,
  0x3dc35971bdeb248dU, 0x3e1b8e553db4e10aU, 0x3be786733cd90e0cU, 0x3d4a95a5bdada4d6U,
  0x3e145222be0d15eeU, 0x3e34e10a3d604a3fU, 0xbcd90e0c3e0b46e1U, 0xbdd90e0cbbada4d6U,
  0x3cada4d63d4a95a5U, 0xbd945222bda2ca89U, 0x3e5002cb3e62194cU, 0x3c2da4d63d90b408U,
  0xbd97f03b3dd90e0cU, 0xbbada4d6bae78673U, 0xbde3e8593d435971U, 0xbd1f2c6f3dfd3b0eU,
  0xbd34e10aU, 0xbd023ba13df5fedaU, 0x3e22ca893d435971U, 0x3d604a3f3e249996U,
  0xbd945222bdeec2a7U, 0x3e145222bd590e0cU, 0x3e0977d43e0d15eeU, 0x3c678673bd945222U,
  0xbe65b7663e4c64b2U, 0xbdce33be3d2668a3U, 0x3dc6f78b3db4e10aU, 0xbe023ba13e040aaeU,
  0x3db4e10a3e040aaeU, 0x3e10b4083e3142f0U, 0x3d7d3b0ebe10b408U, 0x3e3dec4abd823ba1U,
  0x3bada4d6be51d1d8U, 0xbd604a3f3da668a3U, 0xbd2da4d6bd8d15eeU, 0xbae78673bd34e10aU,
  0x3d7d3b0e3ae78673U, 0xbe006c94bae78673U, 0xbe418a64bde78673U, 0xbcca95a53c678673U,
  0x3e604a3f3e3311fdU, 0x3c6786733cada4d6U, 0x3e023ba1bd604a3fU, 0xbdb4e10aU,
  0x3deb248d3d34e10aU, 0xbe4a95a53e19bf48U, 0xbe3a4e31bdbfbb57U, 0x3d17f03bbcada4d6U,
  0xbcd90e0c3cbc1d3dU, 0x3e387f243e145222U, 0x3bf6906ebc1a1a45U, 0x3d40a0d63ce72767U,
  0xbe1a1a45be0e8b80U, 0x3dcc2f9bbd8ab13eU, 0x3e010f9abe1452e2U, 0x3ddf72e43d76906eU,
  0xbd8ab13ebe1265c1U, 0x3da9834c3de72767U, 0xbe2b706c3c1a1a45U, 0x3e2b706c3e38ec52U,
  0xbda1cec83dd7be60U, 0x3d1265c13d86d6fcU, 0x3dd009dd3d02fcbaU, 0xbd9df4863d40a0d6U,
  0xbdeb01a93dd3e41fU, 0xbde34d253e1452e2U, 0x3da9834cbbb8ec52U, 0x3e08c41dbc8ab13eU,
  0x3dcc2f9b3da1cec8U, 0x3d21cec83e0e8b80U, 0x3bf6906e3d02fcbaU, 0xbd86d6fcbd485559U,
  0x3d21cec83e634d25U, 0xbd7e44f1bd57be60U, 0xbd1a1a45bce72767U, 0x3db137cfbe04e9dbU,
  0xbbb8ec52bd672767U, 0x3d57be60bdbcc694U, 0xbe36ff323ddb98a2U, 0x3e3eb3b53d38ec52U,
  0x3d29834c3e51f6feU, 0xbbb8ec523e0c9e5fU, 0x3db512113c9a1a45U, 0x3d964003be653a46U,
  0xbd964003be3eb3b5U, 0x3ce727673d3137cfU, 0x3e2f4aae3ddb98a2U, 0xbe0e8b803d7e44f1U,
  0xbe55d13fbe3eb3b5U, 0x3e1fe1a7bc57be60U, 0x3de34d25bdad5d8dU, 0x3d1a1a453e74a34dU,
  0xbdeb01a9be3cc694U, 0xbd4855593c38ec52U, 0x3ce727673e1a1a45U, 0x3d29834c3cf6906eU,
  0x3ca9834c3e3137cfU, 0xbdfe44f13c9a1a45U, 0x3dc85559bd0ab13eU, 0x3e466839be1452e2U,
  0xbdb512113e634d25U, 0x3d7e44f13df6906eU, 0xbdc0a0d6be2d5d8dU, 0xbce727673e010f9aU,
  0x3cd7be603ddb98a2U, 0xbdf6906e3e0c9e5fU, 0x3d38ec523d02fcbaU, 0xbd3137cfbdb51211U,
  0xbdb137cfbd9df486U, 0x3e55d13f3e351211U, 0xbdb512113e0e8b80U, 0xbdb51211be1a1a45U,
  0x3d57be60be485559U, 0xbd5009dd3e55d13fU, 0xbd3137cfbd3137cfU, 0x3d8e8b803d5009ddU,
  0xbe351211be428df7U, 0x3e6edbeb3da9834cU, 0xbcc85559bdc0a0d6U, 0xbd86d6fc3d40a0d6U,
  0x3deedbebbcd7be60U, 0xbe1452e2bca9834cU, 0x3d3137cf3dfe44f1U, 0xbe0e8b803e74a34dU,
  0x3df6906ebcb8ec52U, 0xbe2b53bd3d616e2eU, 0x3e2fd5f13ca24f54U, 0x3d1046843e050102U,
  0x3dbd5c8d3d7376ffU, 0x3de5f062bd7376ffU, 0x3cfc7b673d194aecU, 0xbd616e2e3e4ae32aU,
  0xbdc660f63e6a7296U, 0xbe6a72963e1709d2U, 0x3c104684be36993fU, 0xbcea72963dafd5f1U,
  0x3da6d189bcc660f6U, 0xbd4f655ebd9dcd20U, 0x3e3b1b73be0bc450U, 0x3df376ff3cb45825U,
  0x3cd869c63e75b819U, 0xbc1046843e4d2444U, 0x3d9dcd20bcb45825U, 0x3e36993f3dc660f6U,
  0x3d224f54bd82bfe8U, 0xbe2b53bd3d7376ffU, 0xbdf7f933bd3d5c8dU, 0x3da24f543e441fdbU,
  0xbd5869c6bd6a7296U, 0xbd4f655e3d7c7b67U, 0x3d5869c6bcb45825U, 0x3d9046843de5f062U,
  0x3e41dec13e8aa3c3U, 0xbd616e2e3d345825U, 0xbe1b8c06be104684U, 0x3df376ff3cea7296U,
  0x3e07421c3d7c7b67U, 0x3d345825bd194aecU, 0xbcfc7b67bdfc7b67U, 0x3e850102be48a210U,
  0x3cea729600000000U, 0x3bd869c6bddcebfaU, 0xbcea7296bd94c8b8U, 0xbdafd5f13de16e2eU,
  0xbd224f543e104684U, 0xbe194aec3e6ef4cbU, 0x3dd3e7923e0e056aU, 0xbdea72963e050102U,
  0xbd194aec3dc660f6U, 0xbdafd5f13dc660f6U, 0x3e3b1b733e345825U, 0xbdf376ffbd07421cU,
  0x3c9046843c5869c6U, 0x3e3d5c8d3dcf655eU, 0xbe6a7296be1709d2U, 0xbcfc7b67bdea7296U,
  0x3e3d5c8d3e32170bU, 0xbda6d1893e2912a3U, 0xbcd869c63e1dcd20U, 0x3dbd5c8dbdafd5f1U,
  0x3e8f25f73d4660f6U, 0x3e8f25f73e2d94d7U, 0xbc1046843d94c8b8U, 0x3dcf655ebdafd5f1U,
  0xbd9dcd203d07421cU, 0x3e5cebfa3e0bc450U, 0x3d3d5c8d3dafd5f1U, 0x3c5869c63c7c7b67U,
  0xbc5869c63e050102U, 0x3e53e792bcfc7b67U, 0xbdbd5c8dbcfc7b67U, 0x3e224f543d87421cU,
  0x3e4f655ebdf7f933U, 0x3ca24f543bd869c6U, 0x3e0e056a3d104684U, 0x3dab53bd3dc1dec1U,
  0x3d3d5c8d3d07421cU, 0x3e53e7923dcf655eU, 0xbde16e2e3e32170bU, 0xbe0bc450bdd3e792U,
  0x3e504ffdbd050a36U, 0xbe050a36bde39178U, 0x3d850a36bdb60df9U, 0x3e1a0bd33ddc90eeU,
  0x3db98e3e3c8c0ac0U, 0xbda80ce6bdd59065U, 0x3e29cd093db98e3eU, 0x3dea92013d8189f1U,
  0x3c9a0bd3bda80ce6U, 0x3c6011333d5910a9U, 0xbde391783d050a36U, 0xbe0c0ac03e088a7bU,
  0x3c440f0d3dab8d2bU, 0xbcee12463e050a36U, 0xbd3d0e833d130b49U, 0x3d6711bd3e280ce6U,
  0x3e248ca1bdab8d2bU, 0xbdb98e3ebdc08ec8U, 0xbde711bdbdb98e3eU, 0x3d5910a93d050a36U,
  0xbd050a36bc7c1359U, 0x3e4ccfb93e4b0f96U, 0xbdce8fdbbd7512d0U, 0x3ba80ce6bca80ce6U,
  0xbe1d8c18bdea9201U, 0x3e424eea3e1f4c3aU, 0x3e210c5dbcc40f0dU, 0xbde711bdbd521020U,
  0x3cee12463df1928bU, 0x3c0c0ac03d9d8c18U, 0x3e37ce1c3e050a36U, 0x3d130b493e37ce1cU,
  0x3e050a36bdc08ec8U, 0xbca80ce6bba80ce6U, 0xbae011333d360df9U, 0xbd7512d03dd21020U,
  0x3daf0d703e5e5111U, 0xbe440f0dbc440f0dU, 0xbe440f0d3da80ce6U, 0xbdd59065bde711bdU,
  0xbd8f8b05bdaf0d70U, 0x3e1a0bd33cb60df9U, 0xbc8c0ac03d850a36U, 0xbe034a143d280ce6U,
  0xbde391783dd21020U, 0x3e0f8b05bd8189f1U, 0x3e3d0e833e0c0ac0U, 0xbba80ce6bd3d0e83U,
  0xbe29cd09bc8c0ac0U, 0x3cd21020be3b4e61U, 0x3e5c90eebd601133U, 0x3dfc13593e050a36U,
  0xbe4e8fdb3c9a0bd3U, 0x3db60df93c0c0ac0U, 0x3d7512d0bd2f0d70U, 0x3d8f8b053e344dd7U,
  0xbd7c13593d360df9U, 0x3e114b27bc601133U, 0xbe0a4a9d3dd910a9U, 0xbe0dcae2bdb28db5U,
  0xbcc40f0d3e1f4c3aU, 0x3d6711bd3da48ca1U, 0x3dd210203d3d0e83U, 0x3d968b8ebd210c5dU,
  0x3e494f743c8c0ac0U, 0xbd968b8e3e1d8c18U, 0x3daf0d70bae01133U, 0x3d360df9bbe01133U,
  0x3dd210203dfc1359U, 0x3db98e3e3d6711bdU, 0x3da10c5dbc601133U, 0x3d3d0e833c7c1359U,
  0xbe3d0e83bcc40f0dU, 0xbba80ce6bcee1246U, 0x3e328db5bd2f0d70U, 0x3da6a17bbbe7d58aU,
  0x3e1484cc3df2b38cU, 0xbe1bc3793d521985U, 0xbe1f62cf3db51ed4U, 0x3e6605dfbda30225U,
  0x3e26a17b3e10e576U, 0x3d8607743d9f62cfU, 0xbae7d58abbe7d58aU, 0xbd9824233e07d71fU,
  0x3db8be2a3e4caa84U, 0xbe4adad9bae7d58aU, 0xbd89a6cabe5cf788U, 0x3d351ed43d82681eU,
  0x3e439c2c3d9484ccU, 0x3deb74e0bc9f62cfU, 0xbdaa40d1be182423U, 0x3dce7a2fbe2fafd3U,
  0x3dc39c2c3b67d58aU, 0x3e21327abce7d58aU, 0xbdd95831bc82681eU, 0xbe521985bd82681eU,
  0x3e2302253d9484ccU, 0x3e1824233e521985U, 0xbdade0283d7d918fU, 0xbdc73b83bc9f62cfU,
  0xbbade0283d9f62cfU, 0x3deb74e03e1f62cfU, 0xbcd958313e009873U, 0x3c67d58a3dcadad9U,
  0xbd89a6cabe182423U, 0xbd351ed4bd9484ccU, 0x3ce7d58abcf652e3U, 0x3d1f62cfbe060774U,
  0x3d3c5d803e1484ccU, 0xbd9484cc3e473b83U, 0xbe12b521bc90e576U, 0xbe09a6ca3d90e576U,
  0xbd82681ebdc39c2cU, 0x3e3e2d2b3e2c107cU, 0xbe53e930be334f29U, 0xbd26a17bbe009873U,
  0xbd439c2c3d82681eU, 0x3e38be2a3e10e576U, 0xbe165477bce7d58aU, 0xbd2de028bd7652e3U,
  0xbd860774bd4adad9U, 0x3def14363d860774U, 0x3cd958313e09a6caU, 0x3c2de028bd09a6caU,
  0x3e24d1d03d7d918fU, 0x3e6096debd6f1436U, 0xbd10e576bbe7d58aU, 0xbda6a17bbdd95831U,
  0xbd82681e3cf652e3U, 0x3d10e5763d982423U, 0xbd4adad93e351ed4U, 0x3def14363e0f15cbU,
  0xbde096debe287126U, 0x3d9484ccbcf652e3U, 0x3d4adad93e2a40d1U, 0x3d439c2c3d6f1436U,
  0x3ce7d58abd2de028U, 0x3d7652e33d595831U, 0x3e41cc81bd89a6caU, 0x3ae7d58abdbffcd6U,
  0x3dfd918fbcbc5d80U, 0x3dd95831U, 0x3e351ed43de096deU, 0xbde096de3e3e2d2bU,
  0xbd82681e3d982423U, 0xbdc39c2c3ddcf788U, 0x3d2de0283e1bc379U, 0x3e12b521bdef1436U,
  0x3e0437c93e07d71fU, 0xbe07d71fbb67d58aU, 0x3e0f06b23e0b4327U, 0xbdc77bdd3dd2c680U,
  0xbe03bc10bd968dc9U, 0x3e30e6993e295f82U, 0xbde95bc43e4d212eU, 0x3d168dc93d9e14e0U,
  0x3e1ff6a5be50e4baU, 0x3e41d68cbe1a5154U, 0x3d8b4327bd43b852U, 0xbd0f06b2be03bc10U,
  0xbd52c680bd43b852U, 0x3d077f9bbdd68a0bU, 0x3cf0e2dbbd259bf7U, 0xbd695bc43dcf02f4U,
  0x3dc3b852bdde1122U, 0xbde95bc43e186f8fU, 0x3e386db0bd077f9bU, 0x3dfff1093c34aa24U,
  0xbd695bc43d968dc9U, 0x3d3c313b3df869f2U, 0x3dde11223e1e14e0U, 0xbe186f8f3dcf02f4U,
  0x3dbff4c73cfff109U, 0x3cd2c680bda1d86bU, 0xbaf0e2db3e368beaU, 0xbd5a4d963e059dd5U,
  0x3c52c680bd9e14e0U, 0x3dfc2d7d3ded1f50U, 0x3d968dc93e3c313bU, 0x3d70e2dbbb70e2dbU,
  0x3d52c680bde95bc4U, 0x3e6f01153dda4d96U, 0x3dfff1093e459a18U, 0x3d877f9b3da1d86bU,
  0x3d5a4d963d8f06b2U, 0xbd168dc93d1e14e0U, 0x3d83bc103e695bc4U, 0xbe4f02f43d5a4d96U,
  0xbe01da4abe41d68cU, 0x3c70e2db3db86db0U, 0x3cfff109bd877f9bU, 0x3dfff1093e43b852U,
  0x3e259bf7bc52c680U, 0x3e568a0b3db86db0U, 0x3e277dbcbdc77bddU, 0x3c52c680bdd2c680U,
  0xbdde11223df0e2dbU, 0xbdbff4c7bdbc313bU, 0x3d34aa24bdd68a0bU, 0x3e1a51543c968dc9U,
  0x3e186f8f3df869f2U, 0xbdbc313bbe096161U, 0x3d61d4adbd7ff109U, 0x3e32c85f3dbff4c7U,
  0x3e186f8fbcd2c680U, 0x3d877f9bbc52c680U, 0x3c34aa243e259bf7U, 0x3e4d212ebd34aa24U,
  0xbc877f9b3d7ff109U, 0x3e1a5154bc34aa24U, 0x3d695bc43d2d230dU, 0xbe0b43273d8f06b2U,
  0xbdb0e699bd83bc10U, 0xbded1f503d4b3f69U, 0x3d70e2db3e259bf7U, 0xbdd68a0bbd695bc4U,
  0x3c168dc93e386db0U, 0xbdc77bdd3e3ff4c7U, 0x3c877f9b3e1a5154U, 0xbd61d4adbde59839U,
  0x3cd2c680bdbff4c7U, 0xbce1d4adbcc3b852U, 0x3d259bf73d1e14e0U, 0x3d8f06b23db0e699U,
  0x3db4aa243d1e14e0U, 0x3df467a83de7fa40U, 0x3ddb8cd8bdadfbb0U, 0xbcb644a03e29d738U,
  0x3e25b2c03dcf1f70U, 0x3c67fa40bcf88c20U, 0x3df467a8bd5fb150U, 0x3e0ac5b43e1f7c0cU,
  0x3d048f003e218e48U, 0xbddb8cd83e17331cU, 0x3e3a69183e25b2c0U, 0xbd8cd7f03d704330U,
  0xbd0cd7f03d806a88U, 0x3e3220283ce7fa40U, 0xbe006a883e1f7c0cU, 0x3e1520e0bddfb150U,
  0x3d46d6803dbe8d90U, 0x3e0ac5b43df88c20U, 0x3e806a883e5343e8U, 0x3d5fb1503d048f00U,
  0x3d5768603e0eea2cU, 0x3e5b8cd83e4afaf8U, 0x3e5b8cd8bc46d680U, 0x3da18e483e06a13cU,
  0x3e3e8d90bdb22028U, 0xbd3e8d903d3644a0U, 0x3e2dfbb03e42b208U, 0x3dcf1f70bcf88c20U,
  0x3d46d680bdadfbb0U, 0x3ce7fa403db644a0U, 0x3d788c203d4f1f70U, 0xbd9945583d46d680U,
  0xbdc2b208bd848f00U, 0x3c9520e03e5b8cd8U, 0x3e1f7c0c3e25b2c0U, 0x3e3856dc3bc6d680U,
  0xbc46d6803dadfbb0U, 0x3e63d5c83d3e8d90U, 0x3e3432643e4f1f70U, 0x3e29d7383e67fa40U,
  0x3c9520e0bdb22028U, 0xbd90fc68bd46d680U, 0x3d048f00bcf88c20U, 0xbc9520e0bd4f1f70U,
  0xbd88b378bd806a88U, 0x3e10fc683e3644a0U, 0xbdbe8d90bdd76860U, 0x3df88c203dfcb098U,
  0x3c848f003bc6d680U, 0x3e10fc68bd848f00U, 0xbb848f003e3856dcU, 0x3c46d680bce7fa40U,
  0x3e08b3783dadfbb0U, 0x3e3432643e8385e2U, 0xbe0eea2cbd806a88U, 0xbca5b2c03dcafaf8U,
  0x3e27c4fc3da18e48U, 0x3de7fa40bbc6d680U, 0x3ddb8cd83e4f1f70U, 0x3e0ac5b4bc848f00U,
  0x3dcafaf8bce7fa40U, 0xbbc6d680bdb644a0U, 0x3e7043303da5b2c0U, 0x3d3644a03ddb8cd8U,
  0x3d0cd7f0be0cd7f0U, 0x3e576860bdb22028U, 0x3dadfbb03e4d0d34U, 0x3e3220283bc6d680U,
  0xbe1f7c0cbd994558U, 0xbe322028bdba6918U, 0x3d3e8d903e2dfbb0U, 0xbd5768603e218e48U,
  0x3dadfbb0bd788c20U, 0x3e17331cbd4f1f70U, 0x3d2dfbb03d46d680U, 0xbc048f003e2be974U,
  0xbe40aa733d8d49ccU, 0x3d93b5e1be03a7adU, 0xbdba3e5ebdb70854U, 0xbe16ebeb3cc0aa73U,
  0x3e2f013a3dc3e07eU, 0x3dc71688bd83a7adU, 0x3e0baec73d13b5e1U, 0x3d86ddb7bd1a21f6U,
  0x3d33d2493df74125U, 0xbded9f06bde0c6dcU, 0xbdca4c933db3d249U, 0xbd26fa20bd8071a2U,
  0xbca6fa20bd907fd6U, 0xbdea68fb3df40b1aU, 0x3ddd90d1bdc71688U, 0xbcda5ac7bd2d6634U,
  0xbde0c6dc3e323744U, 0xbe3f0f6ebdf74125U, 0x3e43e07ebd208e0bU, 0x3de0c6dcbde3fce6U,
  0x3dd3eeb23d5a5ac7U, 0xbdcd829d3d9a21f6U, 0x3dea68fb3e0d49ccU, 0xbddd90d13e020ca7U,
  0x3da08e0bbde0c6dcU, 0xbd13b5e1bacd829dU, 0xbdd724bc3e40aa73U, 0x3d60c6dcbe255f1aU,
  0x3c6732f13e020ca7U, 0x3e0542b2bdf74125U, 0xbbcd829d3cc0aa73U, 0xbdca4c933d6732f1U,
  0x3b4d829dbdbd7469U, 0xbddd90d13d33d249U, 0xbdb708543e222910U, 0xbe107fd63d5a5ac7U,
  0xbd5a5ac7bdea68fbU, 0x3e26fa20bd8a13c1U, 0x3e2229103dd724bcU, 0x3dd3eeb200000000U,
  0x3d06ddb73d907fd6U, 0x3c6732f1bd33d249U, 0xbca6fa203e06ddb7U, 0x3d83a7ad3e48b18dU,
  0xbc8071a2bd4d829dU, 0xbd40aa73bdaa302aU, 0x3e0d49cc3e1d5800U, 0xbe0071a2bd13b5e1U,
  0xbe40aa73be23c415U, 0x3e0d49ccbcb3d249U, 0x3d9d5800bdbd7469U, 0xbcb3d249bcc0aa73U,
  0xbe3a3e5e3d26fa20U, 0xbe40aa733d9a21f6U, 0x3dda5ac7be0071a2U, 0xbacd829dbc6732f1U,
  0xbe0542b2bd26fa20U, 0x3bcd829dbe1d5800U, 0x3e23c4153e13b5e1U, 0xbdc716883e121adcU,
  0x3e0ee4d1bdc3e07eU, 0x3d8071a23ca6fa20U, 0x3cb3d2493d0071a2U, 0x3d8d49ccbcc0aa73U,
  0x3d5a5ac73d83a7adU, 0xbd3a3e5e3dc3e07eU, 0x3e4be7983e0071a2U, 0x3d208e0b3d6d9f06U,
  0x3d9d5800bdda5ac7U, 0xbdad6634bde3fce6U, 0x3e3a3e5e3dcd829dU, 0x3d740b1abc4d829dU,
  0x3cb3d249bb9a21f6U, 0x3d1a21f6be0878bcU, 0x3e0071a23ddd90d1U, 0xbe132a663d82d05bU,
  0x3d5cbf9abe06e6deU, 0xbe132a663d7546abU, 0xbd9f6def3d443888U, 0x3dc02206bd549294U,
  0xbe2384723e402206U, 0xbd82d05b3d443888U, 0xbd4c658ebcd49294U, 0x3d9740e93d6d19a5U,
  0xbdbc0b83be08f21fU, 0xbc443888bdfd73b0U, 0x3c443888bd932a66U, 0xbdcc658e3e2bb177U,
  0xbe4e70d03ddcbf9aU, 0xbcd492943d0afd61U, 0xbd9740e93e1535a8U, 0xbe194c2b3d238472U,
  0x3d7d73b0be238472U, 0x3e02d05b3e3c0b83U, 0xbd2bb177bd6d19a5U, 0xbe0f13e4bdcc658eU,
  0xbd86e6debe1f6defU, 0x3d3c0b833c932a66U, 0x3e194c2b3e08f21fU, 0x3d443888bc02d05bU,
  0xbdafc7fa3e3e16c4U, 0x3c2384723d8f13e4U, 0x3e2384723d132a66U, 0x3e37f500bbc43888U,
  0xbd02d05bbcf546abU, 0xbdf546abbdc43888U, 0x3dc43888bd64ec9fU, 0x3e81caba3e2dbcb9U,
  0x3d3c0b833e06e6deU, 0xbdafc7fabd1b576cU, 0xbdafc7fa3b02d05bU, 0xbe2384723c64ec9fU,
  0x3df546abbd932a66U, 0x3e1535a8bc64ec9fU, 0xbdc43888be58a917U, 0x3e1f6defbe5ab458U,
  0xbde903223d6d19a5U, 0x3e5492943d2bb177U, 0xbe2dbcb93e58a917U, 0xbd932a663c82d05bU,
  0xbda38472bdcc658eU, 0xbd9b576c3d132a66U, 0xbe279af53d4c658eU, 0x3dd8a917bc932a66U,
  0xbd2bb1773e1d62adU, 0xbdc43888be02d05bU, 0x3d02d05b3e111f25U, 0x3e4643ca3d132a66U,
  0xbd9b576c3e443888U, 0xbe06e6de3dd8a917U, 0x3d02d05b3c443888U, 0x3e217930bd5cbf9aU,
  0xbe02d05b3e33de7dU, 0x3e1535a8bd4c658eU, 0x3e0afd613df95d2dU, 0x3c238472bdcc658eU,
  0x3d9f6def3d64ec9fU, 0x3e1535a8bd132a66U, 0xbd64ec9fbdc02206U, 0x3dfd73b0be132a66U,
  0xbdc438883e194c2bU, 0x3e3c0b83bd9b576cU, 0x3de903223e35e9bfU, 0x3e00c51a3de4ec9fU,
  0x3da79af5bde4ec9fU, 0xbdc438883e3c0b83U, 0x3e238472bd64ec9fU, 0xbc4438883d9740e9U,
  0xbd238472bd7546abU, 0x3ce4ec9f3d86e6deU, 0xbd47dad63d95e420U, 0xbd95e4203d9d075fU,
  0xbdab4ddcbe444937U, 0x3df2ae4dbe2261ceU, 0x3d879da4bd925281U, 0xbdb2711a3deb8b0eU,
  0x3dcefe143d9d075fU, 0x3b6467d03c2b4ddcU, 0x3c2b4ddcbd95e420U, 0xbcb99459be27bc3dU,
  0xbdc7dad6bde0d631U, 0xbd95e420be125281U, 0x3db602babdd28fb4U, 0x3d807a65bdcb6c75U,
  0x3e2261cebd47dad6U, 0x3db602babbe467d0U, 0x3d0ec0e2bdb602baU, 0x3d5621533deb8b0eU,
  0x3d1d075f3e545883U, 0xbe1b3e8f3e50c6e4U, 0xbd72ae4d3e3eeec8U, 0xbe141b51bd40b798U,
  0x3e3602babcb99459U, 0xbbe467d03d1d075fU, 0x3daedf7b3d925281U, 0xbd95e420be2261ceU,
  0x3df63fec3d562153U, 0x3e629f00U, 0xbe4280673dd62153U, 0x3d79d18c3dc7dad6U,
  0xbdd9b2f2bcc7dad6U, 0x3c8ec0e23ae467d0U, 0x3d5621533e2b4ddcU, 0xbdf9d18c3de467d0U,
  0xbdef1cae3d95e420U, 0x3dbd25f8bc47dad6U, 0x3e1b3e8fbe05d4d4U, 0x3d47dad6bdef1caeU,
  0x3c9d075f3dd62153U, 0xbce467d03ddd4492U, 0x3dc7dad63d4efe14U, 0xbce467d03c6467d0U,
  0xbe37cb89bdd9b2f2U, 0x3e2edf7bbcb99459U, 0xbdd28fb4bda42a9eU, 0x3d079da4bde7f96fU,
  0xbdb2711a3d5d4492U, 0xbd47dad63e1ed02fU, 0x3db994593cc7dad6U, 0x3d807a65bd9975c0U,
  0x3dcb6c753c47dad6U, 0x3e0cf812be2098feU, 0xbd4efe143e141b51U, 0x3de7f96f3e024335U,
  0xbd840c04bc2b4ddcU, 0x3d6b8b0e3da098feU, 0x3cf2ae4dbe399459U, 0xbb6467d03e444937U,
  0xbe1252813dfd632bU, 0x3b6467d0bdeb8b0eU, 0xbd6467d0bce467d0U, 0xbd15e4203d40b798U,
  0xbe1089b2bddd4492U, 0x3d47dad6bde467d0U, 0x3d079da43d562153U, 0x3d3994593c2b4ddcU,
  0x3cb99459bd9d075fU, 0x3e2edf7b3e2261ceU, 0xbd2b4ddc3e007a65U, 0x3cb994593d4efe14U,
  0x3d40b798bd40b798U, 0x3e040c04bd9d075fU, 0x3c807a653e2edf7bU, 0xbe05d4d43e4d3545U,
  0xbdc7dad63c2b4ddcU, 0x3e043b01be2dad05U, 0x3d5525ccbd64efb5U, 0x3d74b99ebd4d40d7U,
  0x3cadad053e0a26b8U, 0xbe101270bde4efb5U, 0x3e29ba8b3d5d0ac1U, 0x3e06343e3dc16969U,
  0x3decd4aa3e3f702bU, 0x3cecd4aa3df0c724U, 0xbc8e19333d15fe27U, 0xbdecd4aa3da5c810U,
  0xbddd0ac13e1fdc59U, 0x3d4d40d73cecd4aaU, 0xbe3398bdbd3d76eeU, 0xbdc94e5d3e1fdc59U,
  0x3dd918463dc55be3U, 0xbdd918463e17f764U, 0xbd64efb53d99f0a2U, 0xbd86343e3e3591faU,
  0x3e1be9dfbe082d7bU, 0x3c8e1933be21d596U, 0x3d920badbd95fe27U, 0x3d64efb53e72c061U,
  0x3e513352bcadad05U, 0xbda5c810bdf8ac19U, 0x3d6cd4aa3e17f764U, 0x3e19f0a23c9de31cU,
  0xbd8e1933be0c1ff6U, 0x3e319f7fbda1d596U, 0xbdb591fabd5d0ac1U, 0x3e1be9df3e416969U,
  0x3e6adb6d3db98474U, 0x3bbd76ee3cadad05U, 0x3dbd76eebdc16969U, 0x3d6cd4aa3d8241c4U,
  0x3e5f03fe3e3f702bU, 0x3afc9e93bd6cd4aaU, 0x3d64efb5bc3d76eeU, 0xbd7c9e933e5525ccU,
  0xbbbd76eebd8e1933U, 0x3e0a26b83dc16969U, 0x3d25c8103cadad05U, 0x3ddd0ac13df4b99eU,
  0xbc8e19333e23ced3U, 0xbafc9e93be21d596U, 0x3e416969bd15fe27U, 0x3cdd0ac13d2dad05U,
  0xbd5525cc3dd91846U, 0xbd3d76ee3cadad05U, 0x3bfc9e93bd0e1933U, 0xbdb591fabe120badU,
  0xbccd40d73c1de31cU, 0x3cdd0ac13e15fe27U, 0x3c9de31c3d2dad05U, 0x3d2dad053cdd0ac1U,
  0x3dfc9e933d25c810U, 0x3e5918463bfc9e93U, 0x3d2dad053d9de31cU, 0x3e19f0a2bde4efb5U,
  0xbdadad053e0e1933U, 0xbc7c9e933e494e5dU, 0xbd64efb5bd8e1933U, 0xbd15fe273e7aa556U,
  0x3d64efb5bd3591faU, 0xbcecd4aabdf0c724U, 0x3d4d40d7bc5d0ac1U, 0x3e6cd4aa3e27c14eU,
  0x3d3d76ee3e004887U, 0xbd4d40d7be06343eU, 0x3e571f093e571f09U, 0x3e66e8f23d0e1933U,
  0x3e6adb6dbdb19f7fU, 0xbc5d0ac13c9de31cU, 0x3e2fa6423afc9e93U, 0x3d95fe273d3d76eeU,
  0x3c9ab0da3d9de9deU, 0x3d7b5f613cf4ed58U, 0x3d8a93c33e0f694aU, 0x3e29316ebd0dccc7U,
  0xbb9ab0da3d00e8b5U, 0xbc8dccc7be1f8660U, 0x3d943ed03e25f869U, 0xbdb478fe3e2acdf0U,
  0xbdc7cf193d8dccc7U, 0x3d2e06f53d3aeb07U, 0xbcdb2534bd075abeU, 0x3e3fc08e3e1777d5U,
  0xbdee7b4f00000000U, 0x3de80946be1de9deU, 0x3daacdf0bc8dccc7U, 0xbd47cf193d8a93c3U,
  0xbde809463cce4122U, 0x3d0dccc7bb4e4122U, 0x3e0285383dde5e39U, 0xbe143ed03dde5e39U,
  0x3dd17a273d143ed0U, 0xbc6809463dd7ec30U, 0x3d943ed0bd00e8b5U, 0xbdb7b2023e1ab0daU,
  0x3e00e8b5bd80e8b5U, 0xbe0c30453d8421baU, 0x3d415d10be1de9deU, 0xbe028538bda45be7U,
  0xbe2acdf03de4d042U, 0xbd61973d3d3aeb07U, 0xbd9de9de3e3aeb07U, 0xbe1777d5bd6e7b4fU,
  0xbe0a93c3bd4e4122U, 0x3da45be7bd74ed58U, 0xbd8dccc73d8a93c3U, 0x3d8dccc7bddb2534U,
  0xbd9105cc3dcb081dU, 0xbe4ca4a03c00e8b5U, 0xbe32dc7bbe15db53U, 0x3d143ed03da122e3U,
  0x3d3478fe3e15db53U, 0x3d3478fe3de80946U, 0xbd075abebd943ed0U, 0x3d3aeb07bdde5e39U,
  0x3d2e06f53d8421baU, 0xbe29316ebe22bf65U, 0x3e42f992be2122e3U, 0x3c8dccc73dfe9866U,
  0x3e12a24ebe191457U, 0xbe1ab0da3da122e3U, 0x3c3478fe3d74ed58U, 0xbd8dccc7bdce4122U,
  0x3e0a93c33d8a93c3U, 0xbd415d103b9ab0daU, 0x3d2122e33dcb081dU, 0x3d54b32b3d9ab0daU,
  0x3b4e4122bc8dccc7U, 0xbde809463d1ab0daU, 0xbdd4b32b3e05be3cU, 0xbe245be73c680946U,
  0xbe05be3cbd2122e3U, 0x3bce41223e29316eU, 0x3db7b2023ace4122U, 0xbd4e4122bc8dccc7U,
  0x3de4d042bdb7b202U, 0x3e1c4d5c3d8421baU, 0x3e1ab0da3d9105ccU, 0x3d9105ccbde80946U,
  0xbdcb081dbdb478feU, 0x3c3478febd875abeU, 0xbd3478fe3d075abeU, 0x3dce4122bdce4122U,
  0xbe1c4d5c3d1ab0daU, 0xbd2794ecbe1105ccU, 0x3de4d042bdae06f5U, 0x3d5c37dd3e1ecfacU,
  0xbe6b0a653e4d6556U, 0x3dba56a83ded2878U, 0x3e57fbb73e3a56a8U, 0x3d0784d73e66ce3eU,
  0x3ddc37ddbd8ffd24U, 0xbcdc37ddbe3c74bbU, 0x3e607404bdba56a8U, 0x3e8675cd3e0348b0U,
  0xbdd3bf90bc987572U, 0x3ddc37ddbda9660dU, 0x3d42cef53df1649fU, 0x3e2747f93e16575fU,
  0xbdb61a813ccb4742U, 0x3d42cef53e4f8369U, 0xbe20edbfbdf5a0c6U, 0x3e801b933d5c37ddU,
  0xbd8784d7bd29660dU, 0x3d53bf903e1cb199U, 0x3df5a0c63e3e92ceU, 0xbd8ffd243e1ecfacU,
  0x3e121b38bd3a56a8U, 0x3e187572bd6d2878U, 0xbdb1de5a3c6d2878U, 0xbd8ffd24bd7e1913U,
  0xbe2529e63dc2cef5U, 0xbe0ffd243c6d2878U, 0x3d1875723e0ffd24U, 0xbd31de5a3e3c74bbU,
  0x3d1875723e33fc6eU, 0x3cfe1913bdb1de5aU, 0xbda529e6bd94394bU, 0x3e187572bccb4742U,
  0xbd64b02bbb0784d7U, 0xbd20edbf3d75a0c6U, 0xbd9cb199bde8ec52U, 0x3c29660d3d53bf90U,
  0x3cba56a83e3c74bbU, 0xbd187572bd31de5aU, 0xbda0edbf3dbe92ceU, 0x3ced28783da9660dU,
  0x3d3a56a83e470b1cU, 0x3d8348b03e0348b0U, 0x3db1de5a3dfe1913U, 0x3dc2cef5bda9660dU,
  0x3cdc37ddbc8784d7U, 0x3dc70b1cbd64b02bU, 0x3dba56a83ddc37ddU, 0x3d0784d7bccb4742U,
  0xbded2878bdf1649fU, 0xbdf5a0c63e1a9385U, 0x3e0ffd24bcfe1913U, 0x3e6f468c3e40b0e2U,
  0x3d9cb1993d42cef5U, 0x3e121b38bdf5a0c6U, 0xbd6d28783e2747f9U, 0xbd1875723e0784d7U,
  0x3da0edbf3d42cef5U, 0xbd94394b3dcf8369U, 0x3e230bd33e2fc047U, 0x3d0ffd24bb8784d7U,
  0x3e121b383b0784d7U, 0x3e55dda3bd8bc0feU, 0x3ded28783e0ddf11U, 0x3e42cef53d94394bU,
  0x3d8784d7bddc37ddU, 0xbd8784d73ccb4742U, 0x3dba56a8bd8bc0feU, 0x3e5c37dd3de8ec52U,
  0xbc6d2878be0ddf11U, 0x3e0bc0fe3ccb4742U, 0xbd6d28783dfe1913U, 0x3da0edbf3e4b4742U,
  0xbd5c37ddbccb4742U, 0xbe09a2ea3d8ffd24U, 0xbd14f9d3bd8d2292U, 0x3e1ec6e43e579f7cU,
  0x3dfae8203e22b285U, 0xbbbc2e18be674dfeU, 0x3dc7f0fabe384278U, 0xbc9cd1143d440559U,
  0x3de74dfe3db456d7U, 0xbe0355813cdb8b1cU, 0xbe4405593d63625dU, 0xbd7ae82000000000U,
  0x3e5b8b1c3d8d2292U, 0x3e78f250bdcfc83aU, 0xbe16efa33d1cd114U, 0x3e0b2cc2be3e23e8U,
  0x3cac7f96bd910e32U, 0x3e20bcb4bd7ae820U, 0x3e20bcb43e20bcb4U, 0x3cdb8b1cbe16efa3U,
  0xbd3456d73d054b51U, 0x3cac7f96be035581U, 0xbdeb399e3dd79f7cU, 0x3d6b399e3e2c7f96U,
  0x3e1304033e420f89U, 0x3e0f18623d98e574U, 0x3d8936f2be054b51U, 0x3dd79f7c3cac7f96U,
  0xbdcfc83abd815fb0U, 0xbdef253ebdfae820U, 0xbdeb399e3e3e23e8U, 0xbe3a3848bd9cd114U,
  0x3d5b8b1c3d14f9d3U, 0xbd910e32bdb84278U, 0x3d910e32bda893f6U, 0x3dc7f0fa3d440559U,
  0x3dfed3c03db06b36U, 0x3e0f1862bd14f9d3U, 0x3e1ec6e43d440559U, 0xbd94f9d3bcac7f96U,
  0x3bfae8203da0bcb4U, 0xbd9cd1143e1adb44U, 0x3e1ec6e4bdc40559U, 0xbde3625dbe035581U,
  0x3d0d2292be3a3848U, 0x3df310dfbd63625dU, 0xbd8936f2bc7ae820U, 0xbd98e5743d440559U,
  0x3c3c2e18bcac7f96U, 0x3e2c7f963c5b8b1cU, 0xbd910e32be3c2e18U, 0x3db06b36bcac7f96U,
  0xbc3c2e183d24a855U, 0x3c1cd114bbbc2e18U, 0xbe054b51bd94f9d3U, 0x3dc019b8bd7ae820U,
  0x3d2c7f96be0936f2U, 0x3d53b3db3d7ae820U, 0xbdb456d73dc40559U, 0x3c9cd1143dd3b3dbU,
  0xbdfed3c03d9cd114U, 0xbc7ae8203dc40559U, 0x3e53b3db3e3a3848U, 0xbd4bdc9a3e130403U,
  0x3dc019b8be015fb0U, 0xbdcfc83a3cdb8b1cU, 0x3de3625dbc7ae820U, 0x3dfed3c03e110e32U,
  0x3e4019b83cac7f96U, 0xbdc019b83d24a855U, 0xbe4dd26a3e3c2e18U, 0x3c1cd114bdbc2e18U,
  0x3d4405593deb399eU, 0xbd7ae8203e110e32U, 0x3d5b8b1cbbbc2e18U, 0x3d7310df3db84278U,
  0x3d910e323e14f9d3U, 0xbc33874b3dbbf1a3U, 0xbdd530a93e0adaa4U, 0xbe26e7c83ceba192U,
  0xbd81093e3b86a578U, 0xbd5acce3be177a27U, 0x3dd7fec63d83d75bU, 0x3dbbf1a33e161319U,
  0xbc91dded3e0f0fd0U, 0xbd6ba192be06a578U, 0x3df13dcdbd60691eU, 0xbd9fe47f3e1344fcU,
  0xbc86a578bd7c7641U, 0xbe1a4844be22b29cU, 0x3ab3874b3d4f946fU, 0x3ce0691ebab3874bU,
  0xbe2f521f3d9fe47fU, 0xbcb3874b3e080c87U, 0x3dcf946fbcb3874bU, 0xbdc18ddd3dcf946fU,
  0xbcbebfc0bd713dcdU, 0xbc91dded3cc9f834U, 0x3dff445fbdd7fec6U, 0xbd660558bdb92385U,
  0x3dc18dddbd897395U, 0x3e053e6a3d49f834U, 0x3c76da073cb3874bU, 0x3d177a27bde3373bU,
  0xbe18e1363e11ddedU, 0x3ab3874bbdd530a9U, 0x3d33874bbd4f946fU, 0x3dc18ddd3d8c41b3U,
  0x3dccc652bd06a578U, 0xbcbebfc0bdb0b92eU, 0x3e14ac0abd22b29cU, 0xbdee6fb03ab3874bU,
  0xbe32203c3df9a824U, 0x3ab3874bbe080c87U, 0xbd9a4844be161319U, 0xbe2deb11be1d1662U,
  0xbd81093e3d9a4844U, 0x3d9a4844be18e136U, 0xbda2b29cbe18e136U, 0xbd11ddedbe0adaa4U,
  0x3d60691e3d49f834U, 0x3b86a5783d445bfaU, 0xbd7c76413d91ddedU, 0x3d977a27bc49f834U,
  0x3d9fe47f3e177a27U, 0xbe11ddedbdb3874bU, 0xbe2580b9bcd530a9U, 0xbe1076de3e0f0fd0U,
  0xbe2c8402U, 0xbe06a578bd83d75bU, 0xbd3ebfc03da2b29cU, 0xbb86a578bde60558U,
  0x3d9fe47fbd713dcdU, 0x3d94ac0a3d445bfaU, 0xbd83d75bbb33874bU, 0xbe2deb11bd1d1662U,
  0xbb86a5783d713dcdU, 0x3dfc76413d8f0fd0U, 0xbd4f946fbd977a27U, 0xbcd530a9bd977a27U,
  0x3c91ddedbcb3874bU, 0xbe2f521f3e177a27U, 0x3e0adaa4bd284ed6U, 0xbd5acce3bd83d75bU,
  0xbd33874bbe284ed6U, 0xbe18e1363d5acce3U, 0x3d49f8343c76da07U, 0x3d11ddedbe284ed6U,
  0xbe0f0fd03dbbf1a3U, 0xbdab1cf33dc9f834U, 0xbe11dded3e1d1662U, 0x3d2deb113e0da8c1U,
  0x3e5e026b3ddc2cb6U, 0xbe006f6a3cf98802U, 0xbe12c87abddc2cb6U, 0xbe35a4e3be3b2601U,
  0xbd28ccf2bdeada5cU, 0x3dcd7f103d28ccf2U, 0x3d6383893d72312fU, 0x3da8ccf2be07c63dU,
  0xbe35a4e3bd21761fU, 0x3e26f73d3e28ccf2U, 0x3e041ad43e40a71fU, 0xbdac785cbddfd820U,
  0xbceada5c3d0b71a7U, 0x3cdc2cb63e1a1f4cU, 0x3dfd336b3e252189U, 0xbd9a1f4cbd5c2cb6U,
  0x3d72312f3beada5cU, 0xbe07c63d3e07c63dU, 0xbd92c87a3d041ad4U, 0x3dc6283e3b6ada5cU,
  0xbdd8814dbe0f1d10U, 0x3ccd7f10bd638389U, 0x3e07c63d3de38389U, 0x3dcd7f103e1bf501U,
  0xbe1a1f4cbd638389U, 0x3dfd336bbe006f6aU, 0xbda8ccf23c12c87aU, 0xbc4d7f10be56ab98U,
  0xbc6ada5cbdc6283eU, 0x3e445289bd3023c5U, 0xbd6ada5c3db3cf2eU, 0xbca1761f3e006f6aU,
  0x3bb023c53d5c2cb6U, 0x3e0d475bbd72312fU, 0xbde383893dbed16bU, 0xbdac785c3d21761fU,
  0x3ddfd820bd841ad4U, 0xbdb77a983e2aa2a7U, 0x3d8b71a7bdac785cU, 0x3d72312fbe07c63dU,
  0xbdcd7f103d54d5e3U, 0x3e6904a73cf98802U, 0x3beada5cbd3ed16bU, 0xbd8b71a73df2312fU,
  0xbc92c87a3df5dc98U, 0xbdcd7f10U, 0x3da52189bde38389U, 0xbe234bd43d841ad4U,
  0x3cbed16bbdcd7f10U, 0xbb6ada5c3bb023c5U, 0x3e5a57023d806f6aU, 0x3c4d7f10bdfd336bU,
  0xbd806f6a3dbed16bU, 0xbe0b71a7bd638389U, 0xbd8f1d10bd21761fU, 0xbde72ef33e3cfbb6U,
  0xbc92c87a3d6ada5cU, 0x3e006f6abd8f1d10U, 0x3e05f088be3cfbb6U, 0x3dd12a7a3e1fa06bU,
  0xbc92c87a3c3023c5U, 0x3d12c87abd21761fU, 0xbd841ad43c92c87aU, 0x3e3023c53e0b71a7U,
  0x3cdc2cb63d3ed16bU, 0x3e46283ebdb3cf2eU, 0x3dd8814dbd9673e3U, 0x3dc27cd4bda8ccf2U,
  0x3d92c87a3dd4d5e3U, 0xbd6383893de38389U, 0x3d1a1f4cbc841ad4U, 0x3e1bf501be006f6aU,
  0x3d1a1f4cbd5c2cb6U, 0xbdb3cf2e3e184998U, 0x3aeada5cbd8f1d10U, 0xbdd507a6bdf2b138U,
  0x3e00166cbe082d65U, 0xbe0d920bbdc4d9b3U, 0xbc6d4c92bdccf0acU, 0xbe0421e83ddfd0f2U,
  0xbd86d43bbe00166cU, 0xbdfac8313d8eeb35U, 0x3e12f6b1bdd7b9f9U, 0xbcac94c7be1dbffeU,
  0x3d21cb7b3dcfa2ffU, 0xbe12f6b13bac94c7U, 0x3e0eeb35bce28345U, 0x3dba10673c6d4c92U,
  0x3da1cb7b3e29e274U, 0x3e0eeb35bd9f1927U, 0xbdbf750d3dc78c06U, 0x3d31f96dbe2324a4U,
  0x3dcfa2ff3d016f95U, 0x3d86d43bbc8c38e2U, 0xbda730213c816f95U, 0x3d2c94c73e28894aU,
  0xbd919d883d8421e8U, 0x3d016f953de28345U, 0xbe25d6f73d97022eU, 0x3d97022ebd7815deU,
  0xbd9c66d43dfd7a84U, 0x3d119d88bc97022eU, 0xbe25d6f7bdd25553U, 0xbbd7b9f9bc97022eU,
  0x3d8421e83e09868fU, 0xbdb75e133d3cc2baU, 0x3e17022e3e016f95U, 0xbe0adfb83d57b9f9U,
  0x3d816f95bbd7b9f9U, 0xbdf2b138be21cb7bU, 0x3d4cf0acbd9f1927U, 0x3cccf0acbd9c66d4U,
  0xbdb4abc0bd86d43bU, 0x3c6d4c92bdba1067U, 0xbce283453d628345U, 0xbe00166cbe1f1927U,
  0xbcf815de3de53598U, 0xbc422760bdcfa2ffU, 0x3e1c66d43d8c38e2U, 0x3dc78c063e19b481U,
  0xbe00166c3e1c66d4U, 0xbe0c38e23cc22760U, 0x3deffee53dcfa2ffU, 0x3cac94c73e2b3b9dU,
  0x3c2c94c7bdac94c7U, 0xbd7815debc6d4c92U, 0xbdf5638bbe0d920bU, 0xbdda6c4cbe2324a4U,
  0xbd8eeb35bde28345U, 0xbce28345bb2c94c7U, 0xbe0c38e23e29e274U, 0xbda73021bd2c94c7U,
  0x3e082d65bdda6c4cU, 0xbddd1e9fbc97022eU, 0x3dcfa2ffbbd7b9f9U, 0xbe119d883d9f1927U,
  0xbe2730213b816f95U, 0xbe1c66d43e082d65U, 0xbdfac831bdac94c7U, 0x3e1f1927be25d6f7U,
  0xbe29e274bd375e13U, 0xbd06d43b3dd25553U, 0xbd944fdbbc17022eU, 0xbdca3e59be2b3b9dU,
  0xbdac94c73c816f95U, 0x3dba10673cac94c7U, 0xbd4227603d919d88U, 0xbdccf0ac3cf815deU,
  0xbc422760be016f95U, 0xbb2c94c73dac94c7U, 0xbde9762abc89f45fU, 0x3d3466f23ddc325cU,
  0x3e19df56bc9f2da8U, 0xbe0def1cbdf96121U, 0xbda723243e19df56U, 0x3de6cf013dfeaf74U,
  0x3c29ca4dU, 0x3b7eaf74bd598b33U, 0x3d874d35bd796121U, 0xbe2876b83c9f2da8U,
  0xbbd43ce0bdc9a03bU, 0x3cded9853d97382dU, 0x3d9491033d04a60cU, 0x3cf412cf3dc9a03bU,
  0xbc9f2da8bbfeaf74U, 0xbe1096463d874d35U, 0xbe247bfbbe0c9b88U, 0x3e035278bdf96121U,
  0x3cf412cfbd2f189fU, 0xbe21d4d13d89f45fU, 0xbcfeaf74bd3466f2U, 0xbc69762abdf412cfU,
  0x3d598b333d874d35U, 0xbe1c867f3e109646U, 0xbe188bc1bde6cf01U, 0xbbd43ce0bdfeaf74U,
  0xbe20813dbe0c9b88U, 0xbd39b5443d6ec47cU, 0x3cd43ce0be01fee3U, 0xbdb1bfc9bc543ce0U,
  0xbdfeaf74bd3f0397U, 0x3e109646bda72324U, 0x3e1c867f3ddc325cU, 0x3e0def1cbcbf0397U,
  0xbdc1aac0bd8f42b1U, 0x3dd195b7bd598b33U, 0x3cded9853d09f45fU, 0xbe15e4983d8c9b88U,
  0xbc3f03973d0f42b1U, 0xbd543ce0be1b32eaU, 0xbdb9b544baa9ca4dU, 0x3d3466f2bd0f42b1U,
  0x3da1d4d1bdd6e409U, 0x3e0def1c3e0c9b88U, 0x3e04a60cbc89f45fU, 0xbc543ce0bd3466f2U,
  0xbd247bfb3d796121U, 0x3df16ba5bd247bfbU, 0x3d04a60c3df96121U, 0xbd04a60cbb7eaf74U,
  0xbd7eaf743d2f189fU, 0xbdc6f912be0c9b88U, 0xbe1dda14bda47bfbU, 0xbe17382dbe20813dU,
  0xbdc9a03bbd97382dU, 0xbde9762a3db9b544U, 0xbd69762a3d49a03bU, 0x3dbf0397bc3f0397U,
  0xbcbf0397be25cf8fU, 0xbc543ce03d91e9daU, 0xbd9491033e272324U, 0xbcc9a03b3d598b33U,
  0x3cd43ce0bde9762aU, 0x3d247bfbbdd43ce0U, 0xbde180aebd04a60cU, 0xbe133d6f3e0b47f3U,
  0x3ca9ca4dbd99df56U, 0xbd247bfb3e11e9daU, 0xbdc451e9bde180aeU, 0xbdf16ba5bdd195b7U,
  0x3da9ca4d3da47bfbU, 0xbe15e4983da47bfbU, 0xbe272324bcbf0397U, 0x3d0f42b1bc949103U,
  0x3dcc4765bdfc084aU, 0x3e19cfad3d32faf8U, 0x3de81d7a3dbe2aa8U, 0x3d548a06be063c3aU,
  0x3c063c3a3da7cb48U, 0x3c32faf83c32faf8U, 0xbe03704ebd65518eU, 0xbde81d7a3c32faf8U,
  0xbe0bd412be12d1dfU, 0x3d7619153d00a462U, 0xbe2bfd2abc1c9b99U, 0x3bb2faf83db5c6e4U,
  0x3cbe2aa8bdad6320U, 0xbdcef22f3cdfb9b6U, 0xbdad6320bc916beaU, 0xbe2ec916bc063c3aU,
  0xbe0a6e1c3c063c3aU, 0x3d6ae966bd4ef22fU, 0xbd8bd4123dd755f2U, 0xbe1b35a3bde81d7aU,
  0xbdbb5ebc3d32faf8U, 0x3db5c6e43cdfb9b6U, 0x3d8908263e07a230U, 0x3d548a06be1437d5U,
  0x3e1f6785bdc95a57U, 0xbdcc2643be239967U, 0x3e03704ebe29313eU, 0xbdfbb0edbd116beaU,
  0xbdaa9734bddcedcaU, 0x3d6ae966bd3892d0U, 0x3d5a21de3c32faf8U, 0xbdbb5ebc3e1f6785U,
  0x3d4ef22f3d70813dU, 0x3e1703c13d83704eU, 0x3d495a57U, 0x3de5518e3bdfb9b6U,
  0x3dcef22fbcbe2aa8U, 0x3ceae9663d223371U, 0x3dd1be1bbdd1be1bU, 0x3d223371be063c3aU,
  0xbd7bb0edbe2d6320U, 0xbe12d1df3ca7cb48U, 0xbe1c9b993ddcedcaU, 0x3ab2faf83d5a21deU,
  0x3dfbb0edbde285a2U, 0xbe2a97343da7cb48U, 0x3de285a2bc1c9b99U, 0xbdb892d03dcef22fU,
  0x3d0bd412be1703c1U, 0x3dc95a573e1005f4U, 0x3e2a9734bd223371U, 0x3dfbb0ed3d116beaU,
  0xbc32faf8bd5a21deU, 0xbd063c3abddfb9b6U, 0xbd9437d53dda21deU, 0x3cbe2aa8bde5518eU,
  0xbdda21de3d2d6320U, 0xbe319502be07a230U, 0xbb32faf8bd916beaU, 0x3d1c9b993d223371U,
  0xbd863c3a3e090826U, 0xbe2233713e12d1dfU, 0xbdb02f0cbd3892d0U, 0xbde285a2bdf61915U,
  0x3ab2faf8bda7cb48U, 0x3d8908263d27cb48U, 0xbd116beabd890826U, 0xbd2d63203df61915U,
  0xbd916beabab2faf8U, 0x3d6ae9663d9437d5U, 0xbc916beabe020a58U, 0x3d8bd4123d43c27fU,
  0x3dfbb0ed3bb2faf8U, 0x3df8e5013c063c3aU, 0x3d863c3abdf61915U, 0x3cc95a573d70813dU,
  0xbca204683d78cfe8U, 0xbe2f0955be0c5187U, 0xbdf3069bbe1671ceU, 0x3e0adf343d2d9701U,
  0xbcad9701bd2d9701U, 0x3d8dc3db3df8cfe8U, 0x3be774023ddec60eU, 0x3dd8fcc2be34d2a1U,
  0x3cb9299b3cd04eceU, 0xbe121ad4bd5be168U, 0x3c9671ce3e07fa8eU, 0x3ded3d4fbcb9299bU,
  0x3d4a8582bd0515e7U, 0xbd1c3b1b3de77402U, 0x3e138d283e17e421U, 0x3e06883b3db07ba8U,
  0xbdbc0e41be121ad4U, 0x3d1c3b1b3e07fa8eU, 0x3d504ecebdb3604eU, 0xbdb3604ebe24e90eU,
  0x3e2c24aebd39299bU, 0x3cc4bc353ce77402U, 0x3d504ece3d0515e7U, 0x3e00beeebe023141U,
  0xbca204683df3069bU, 0xbdbef2e8bcb9299bU, 0x3db9299bbd3ef2e8U, 0x3d1c3b1b3db07ba8U,
  0x3d6774023e3644f5U, 0x3e2f09553e1671ceU, 0x3be774023ddec60eU, 0xbe1c3b1b3d8adf34U,
  0xbde48f5b3d677402U, 0xbd504ece3dc1d78eU, 0xbe138d28bd1671ceU, 0xbd9c3b1b3d8515e7U,
  0x3e1c3b1bbd1671ceU, 0xbe138d28bd8adf34U, 0x3cd04ecebd5be168U, 0x3c8adf34bd9c3b1bU,
  0x3e0f362ebdb3604eU, 0x3d61aab5be2376bbU, 0xbdb07ba8bddbe168U, 0xbd0adf34bcdbe168U,
  0x3c7e99353dbc0e41U, 0x3c2204683d87fa8eU, 0xbe10a8813d33604eU, 0xbdf021f53d6d3d4fU,
  0x3e195674bdc7a0dbU, 0xbd4a85823e0dc3dbU, 0x3e37b748be023141U, 0x3db3604ebdbef2e8U,
  0xbe1c3b1bbe2376bbU, 0xbb8adf343dd6181bU, 0x3dbef2e8bd0515e7U, 0xbe265b61bd1c3b1bU,
  0x3dd33375be1dad6eU, 0xbe096ce13d10a881U, 0xbab9299b3d6d3d4fU, 0x3dd333753db9299bU,
  0x3d6774023c677402U, 0x3de48f5bbd0adf34U, 0x3d9f1fc1be37b748U, 0x3e121ad43e1dad6eU,
  0xbcc4bc353e10a881U, 0x3d5be1683de48f5bU, 0x3c504ece3d10a881U, 0x3be77402bdc7a0dbU,
  0xbca20468bdf021f5U, 0xbe2c24ae3ce77402U, 0x3d39299bbd44bc35U, 0x3db3604ebca20468U,
  0xbe0adf343e195674U, 0x3c677402be07fa8eU, 0x3db644f5bc220468U, 0xbe3eed263c099ac6U,
  0x3d5c2ad73db2e2cfU, 0x3da520213e0471c5U, 0xbe0ec3c7bd32e2cfU, 0x3e312a79badc2ad7U,
  0xbdbd34d1bd9ace1fU, 0x3daf72233de30c2eU, 0x3de67cd93e2890cdU, 0x3d9ace1f3db6537aU,
  0x3de9ed84bd8d0b72U, 0xbd899ac63e0ec3c7U, 0x3ded5e303e0ec3c7U, 0xbd82b970bc099ac6U,
  0x3e493f29bd907c1dU, 0xbc099ac63e1ace1fU, 0x3e2a49223cce682aU, 0x3de9ed843d107c1dU,
  0xbd9e3ecb3dbd34d1U, 0x3e07e2713ce9ed84U, 0xbd975d743cce682aU, 0x3e0471c53adc2ad7U,
  0x3dd8ba2c3e07e271U, 0xbdd8ba2c3df0cedbU, 0xbdd1d8d53d9ace1fU, 0x3adc2ad7be1ff720U,
  0xbd554980bd252021U, 0xbd175d743d1e3ecbU, 0xbdb9c425bcdc2ad7U, 0x3d69ed843d2c0178U,
